{"version":"1.0","truncation":null,"padding":null,"added_tokens":[{"id":0,"special":true,"content":"<s>","single_word":false,"lstrip":false,"rstrip":false,"normalized":false},{"id":1,"special":true,"content":"<pad>","single_word":false,"lstrip":false,"rstrip":false,"normalized":false},{"id":2,"special":true,"content":"</s>","single_word":false,"lstrip":false,"rstrip":false,"normalized":false},{"id":3,"special":true,"content":"<mask>","single_word":false,"lstrip":false,"rstrip":false,"normalized":false}],"normalizer":null,"pre_tokenizer":{"type":"ByteLevel","add_prefix_space":false,"trim_offsets":true},"post_processor":{"type":"ByteLevel","add_prefix_space":true,"trim_offsets":false},"decoder":{"type":"ByteLevel","add_prefix_space":true,"trim_offsets":true},"model":{"type":"BPE","dropout":null,"unk_token":null,"continuing_subword_prefix":null,"end_of_word_suffix":null,"fuse_unk":false,"vocab":{"<s>":0,"<pad>":1,"</s>":2,"<mask>":3,"!":4,"\"":5,"#":6,"$":7,"%":8,"&":9,"'":10,"(":11,")":12,"*":13,"+":14,",":15,"-":16,".":17,"/":18,"0":19,"1":20,"2":21,"3":22,"4":23,"5":24,"6":25,"7":26,"8":27,"9":28,":":29,";":30,"<":31,"=":32,">":33,"?":34,"@":35,"A":36,"B":37,"C":38,"D":39,"E":40,"F":41,"G":42,"H":43,"I":44,"J":45,"K":46,"L":47,"M":48,"N":49,"O":50,"P":51,"Q":52,"R":53,"S":54,"T":55,"U":56,"V":57,"W":58,"X":59,"Y":60,"Z":61,"[":62,"\\":63,"]":64,"^":65,"_":66,"`":67,"a":68,"b":69,"c":70,"d":71,"e":72,"f":73,"g":74,"h":75,"i":76,"j":77,"k":78,"l":79,"m":80,"n":81,"o":82,"p":83,"q":84,"r":85,"s":86,"t":87,"u":88,"v":89,"w":90,"x":91,"y":92,"z":93,"{":94,"|":95,"}":96,"~":97,"¡":98,"¢":99,"£":100,"¤":101,"¥":102,"¦":103,"§":104,"¨":105,"©":106,"ª":107,"«":108,"¬":109,"®":110,"¯":111,"°":112,"±":113,"²":114,"³":115,"´":116,"µ":117,"¶":118,"·":119,"¸":120,"¹":121,"º":122,"»":123,"¼":124,"½":125,"¾":126,"¿":127,"Â":128,"Ã":129,"Ä":130,"Å":131,"Ë":132,"Ð":133,"á":134,"â":135,"æ":136,"è":137,"ï":138,"Đ":139,"Ę":140,"Ġ":141,"Ģ":142,"ģ":143,"Ĥ":144,"Ħ":145,"ħ":146,"Ĩ":147,"ĩ":148,"Ī":149,"ī":150,"Ĭ":151,"Į":152,"į":153,"ĳ":154,"Ĵ":155,"ĵ":156,"Ķ":157,"ķ":158,"ĸ":159,"Ĺ":160,"ĺ":161,"Ļ":162,"ļ":163,"Ľ":164,"ľ":165,"Ŀ":166,"ŀ":167,"Ł":168,"ł":169,"Ń":170,"Ġt":171,"Ġa":172,"he":173,"in":174,"Ġthe":175,"Ġs":176,"re":177,"Ġw":178,"Ġo":179,"is":180,"er":181,"nd":182,"Ġf":183,"Ġm":184,"Ġb":185,"it":186,"ha":187,"ing":188,"Ġc":189,"en":190,"es":191,"or":192,"ou":193,"on":194,"ll":195,"Ġof":196,"Ġand":197,"Ġto":198,"Ġp":199,"Ġd":200,"ed":201,"an":202,"Ġin":203,"at":204,"Ġl":205,"ar":206,"as":207,"om":208,"Ġis":209,"his":210,"Ġg":211,"ic":212,"ĠI":213,"le":214,"Ġe":215,"hat":216,"ot":217,"Ġn":218,"ut":219,"st":220,"ct":221,"al":222,"il":223,"Ġit":224,"Ġbe":225,"ve":226,"ie":227,"ly":228,"ĠT":229,"Ġmo":230,"Ġha":231,"ho":232,"Ġon":233,"Ġre":234,"Ġthat":235,"ver":236,"ent":237,"Ġhe":238,"'s":239,"ra":240,"ion":241,"Ġthis":242,"im":243,"se":244,"Ġst":245,"ay":246,"et":247,"gh":248,"id":249,"Ġwas":250,"Ġmov":251,"Ġy":252,"ith":253,"ro":254,"ilm":255,"Ġfilm":256,"Ġfor":257,"ad":258,"Ġu":259,"ce":260,"Ġas":261,"all":262,"Ġwith":263,"ĠA":264,"ke":265,"ch":266,"ld":267,"Ġan":268,"Ġse":269,"ĠS":270,"ĠThe":271,"Ġh":272,"oo":273,"ir":274,"Ġmovie":275,"Ġyou":276,"ri":277,"ow":278,"am":279,"Ġth":280,"ĠB":281,"her":282,"Ġli":283,"ur":284,"ĠM":285,"Ġbut":286,"ill":287,"'t":288,"Ġwe":289,"Ġnot":290,"ter":291,"ally":292,"Ġ(":293,"ĠC":294,"Ġ\"":295,"ĠH":296,"ck":297,"Ġare":298,"ome":299,"..":300,"Ġhis":301,"pe":302,"ers":303,"ĠW":304,"ould":305,"Ġat":306,"ul":307,"un":308,"Ġhave":309,"ght":310,"ĠD":311,"Ġsc":312,"ust":313,"if":314,"Ġj":315,"em":316,"Ġsu":317,"Ġfr":318,"out":319,"Ġact":320,"Ġdo":321,"Ġwho":322,"ble":323,"Ġone":324,"Ġex":325,"ess":326,"ain":327,"Ġk":328,"Ġpl":329,"el":330,"Ġso":331,"Ġcom":332,"very":333,"Ġab":334,"Ġall":335,"ies":336,"ood":337,"art":338,"ant":339,"pp":340,"Ġby":341,"Ġcha":342,"Ġal":343,"us":344,"ol":345,"ak":346,"ag":347,"Ġv":348,"how":349,"Ġwh":350,"Ġde":351,"ous":352,"est":353,"ĠL":354,"ĠP":355,"Ġfrom":356,"Ġthey":357,"ort":358,"op":359,"Ġne":360,"ĠR":361,"ast":362,"Ġlike":363,"and":364,"qu":365,"one":366,"ĠF":367,"Ġout":368,"Ġsome":369,"Ġwhe":370,"Ġint":371,"ist":372,"Ġor":373,"fe":374,"ation":375,"Ġcon":376,"um":377,"ven":378,"ĠJ":379,"ĠG":380,"au":381,"red":382,"Ġher":383,"ough":384,"Ġr":385,"Ġhas":386,"Ġjust":387,"ĠIt":388,"Ġabout":389,"res":390,"ract":391,"Ġme":392,"hing":393,"Ġpro":394,"ĠN":395,"Ġwor":396,"ive":397,"ory":398,"ind":399,"pt":400,"os":401,"ack":402,"ate":403,"Ġun":404,"Ġcan":405,"ig":406,"Ġtim":407,"Ġle":408,"ĠE":409,"ud":410,"ake":411,"reat":412,"ire":413,"han":414,"Ġcharact":415,"ight":416,"Ġup":417,"ich":418,"Ġgood":419,"ong":420,"The":421,"Ġlo":422,"ĠO":423,"Ġman":424,"Ġgo":425,"ook":426,"Ġmore":427,"Ġany":428,"Ġwat":429,"ry":430,"Ġget":431,"ity":432,"Ġno":433,"Ġwhat":434,"Ġsee":435,"Ġwould":436,"Ġfe":437,"Ġthere":438,"Ġvery":439,"Ġfa":440,"nt":441,"ound":442,"ther":443,"Ġsh":444,"ge":445,"Ġmy":446,"Ġstory":447,"ite":448,"ard":449,"ide":450,"Ġbec":451,"od":452,"Ġtime":453,"Ġshe":454,"Ġwhen":455,"ame":456,"Ġtheir":457,"Ġen":458,"Ġ1":459,"ell":460,"Ġscen":461,"able":462,"Ġwere":463,"ore":464,"Ġreally":465,"lf":466,"pl":467,"Ġ-":468,"oy":469,"ure":470,"Ġonly":471,"ious":472,"itt":473,"Ġhad":474,"Ġhim":475,"ick":476,"Ġper":477,"Ġif":478,"ĠK":479,"ink":480,"ial":481,"Ġthem":482,"Ġother":483,"Ġwhich":484,"Ġeven":485,"so":486,"Ġcl":487,"Ġwatch":488,"Ġshow":489,"Ġthan":490,"ab":491,"ment":492,"ine":493,"our":494,"...":495,"Ġkn":496,"man":497,"ond":498,"og":499,"Ġdid":500,"Ġend":501,"Ġdoes":502,"te":503,"ves":504,"ars":505,"uch":506,"ru":507,"ays":508,"Ġpe":509,"ause":510,"Ġlook":511,"are":512,"Ġbet":513,"Ġgreat":514,"Ġqu":515,"Ġbad":516,"ice":517,"Ġmuch":518,"Ġcould":519,"irect":520,"irst":521,"ople":522,"ade":523,"per":524,"Ġar":525,"Ġbeen":526,"ence":527,"Ġpo":528,"Ġinto":529,"ple":530,"Ġro":531,"Ġhow":532,"Ġover":533,"Ġwill":534,"ĠThis":535,"Ġim":536,"Ġmost":537,"Ġwell":538,"for":539,"Ġtw":540,"other":541,"Ġpre":542,"Ġpeople":543,"ac":544,"int":545,"ng":546,"ert":547,"Ġknow":548,"Ġdis":549,"th":550,"ne":551,"Ġthink":552,"ass":553,"Ġtoo":554,"Ġbecause":555,"Ġus":556,"Ġad":557,"age":558,"fter":559,"Ġmake":560,"Ġag":561,"ile":562,"Ġoff":563,"ff":564,"Ġreal":565,"ors":566,"Ġfirst":567,"Ġdirect":568,"ful":569,"Ġpart":570,"Ġevery":571,"ving":572,"Ġthing":573,"Ġam":574,"Ġmade":575,"ny":576,"ull":577,"Ġway":578,"ere":579,"Ġfun":580,"Ġalso":581,"ish":582,"Ġsa":583,"wn":584,"ary":585,"Ġseem":586,"ty":587,"ict":588,"Ġcharacter":589,"Ġmovies":590,"ap":591,"Ġdon":592,"Ġits":593,").":594,"Ġgu":595,"gin":596,"ian":597,"Ġbl":598,"Ġmak":599,"ep":600,"Ġ'":601,"Ġcharacters":602,"oll":603,"ue":604,"Ġwr":605,"ical":606,"ces":607,"ĠY":608,"iew":609,"ress":610,"ĠAnd":611,"ob":612,"Ġsp":613,"Ġwork":614,"ually":615,"Ġfilms":616,"ated":617,"cc":618,"Ġfl":619,"pect":620,"fect":621,"Ġte":622,"iz":623,"Ġplot":624,"Ġbeing":625,"Ġplay":626,"hed":627,"self":628,"Ġthen":629,"Ġho":630,"ĠV":631,"omet":632,"Ġwant":633,"ĠBut":634,"mer":635,"ost":636,"Ġye":637,"ittle":638,"Ġtwo":639,"Ġafter":640,"Ġaw":641,"Ġseen":642,"ens":643,"),":644,"Ġser":645,"get":646,"Ġyour":647,"urn":648,"Ġnever":649,"Ġlove":650,"rough":651,"ved":652,"ip":653,"Ġmany":654,"Ġwhere":655,"nder":656,"own":657,"ĠHe":658,"ran":659,"ĠIn":660,"Ġent":661,"hy":662,"Ġacting":663,"Ġback":664,"ult":665,"Ġsay":666,"me":667,"Ġlittle":668,"Ġthrough":669,"Ġhor":670,"Ġlife":671,"Ġbest":672,"Ġra":673,"du":674,"Ġsomet":675,"ild":676,"vel":677,"ather":678,"ris":679,"Ġrem":680,"Ġbetter":681,"Ġever":682,"This":683,"ever":684,"we":685,"ci":686,"ach":687,"ark":688,"ions":689,"ace":690,"ily":691,"les":692,"ber":693,"Ġbr":694,"ual":695,"Ġdes":696,"Ġscene":697,"Ġrec":698,"Ġperfor":699,"Ġfind":700,"Ġshould":701,"Ġspe":702,"be":703,"ought":704,"Ġsl":705,"ĠSt":706,"Ġscenes":707,"!!":708,"Ġatt":709,"ertain":710,"less":711,"Ġ2":712,"Ġunder":713,"thing":714,"ting":715,"erest":716,"Ġmin":717,"Ġfeel":718,"ĠU":719,"iend":720,"Ġcont":721,"lie":722,"ents":723,"Ġri":724,"Ġagain":725,"Ġkill":726,"Ġinterest":727,"hose":728,"ree":729,"ĠThere":730,"'ve":731,"igh":732,"vers":733,"Ġch":734,"Ġtra":735,"ense":736,"Ġhere":737,"ance":738,"ia":739,"Ġsomething":740,"Ġsur":741,"ren":742,"Ġhapp":743,"Ġstill":744,"rd":745,"ations":746,"Ġthese":747,"Ġ19":748,"Ġlot":749,"fore":750,"ning":751,"ror":752,"iv":753,"Ġperforman":754,"Ġsuch":755,"ably":756,"'m":757,"ons":758,"Ġinc":759,"Ġmay":760,"Ġi":761,"ans":762,"Ġhum":763,"Ġgen":764,"sp":765,"ect":766,"Ġimp":767,"ise":768,"ating":769,"augh":770,"the":771,"reen":772,"Ġcast":773,"Ġold":774,"Ġgi":775,"rap":776,"ase":777,"Ġpoint":778,"Ġdoesn":779,"arly":780,"Ġdec":781,"act":782,"Ġthose":783,"Ġap":784,"Ġwom":785,"Ġsim":786,"Ġcou":787,"Ġguy":788,"Ġdidn":789,"ps":790,"alk":791,"irl":792,"oc":793,"ĠJo":794,"Ġtry":795,"ater":796,"Ġfact":797,"Ġstart":798,"oth":799,"Ġyears":800,"ffect":801,"Ġmakes":802,"Ġfunny":803,"Ġactors":804,"joy":805,"Ġwatching":806,"Ġgoing":807,"Ġset":808,"Ġche":809,"Ġpr":810,"oss":811,"Ġfam":812,"ute":813,"Ġtak":814,"ĠAl":815,"Ġcomed":816,"ĠIf":817,"Ġview":818,"ang":819,"Ġenjoy":820,"iss":821,"Ġsame":822,"Ġob":823,"erson":824,"Ġmus":825,"Ġbelie":826,"ath":827,"aw":828,"ale":829,"Ġwhile":830,"Ġdown":831,"Ġfew":832,"Ġcomp":833,"der":834,"Ġdif":835,"Ġactually":836,"up":837,"Ġown":838,"Ġem":839,"ram":840,"Ġlong":841,"Ġter":842,"Ġbefore":843,"rit":844,"cial":845,"Ġfin":846,"Ġev":847,"**":848,"ft":849,"av":850,"Ġke":851,"Ġwhy":852,"Ġtru":853,"ason":854,"Ġnew":855,"Ġyoung":856,"Ġprodu":857,"Ġbit":858,"Ġsm":859,"ience":860,"rigin":861,"Ġnow":862,"Ġdirector":863,"ub":864,"Ġsub":865,"Ġthought":866,"Ġres":867,"Ġpret":868,"Ġturn":869,"Ġtri":870,"ript":871,"Ġgot":872,"'re":873,"Ġ&":874,"ince":875,"Ġnothing":876,"ew":877,"Ġanother":878,"li":879,"Ġsupp":880,"--":881,"de":882,"Ġthough":883,"az":884,"meric":885,"Ġorigin":886,"Ġinv":887,"ose":888,"Ġexce":889,"ib":890,"Ġbig":891,"Ġeffect":892,"rent":893,"Ġgirl":894,"Ġcomple":895,"Ġaction":896,"ign":897,"Ġgr":898,"ĠCh":899,"Ġfriend":900,"Ġaround":901,"Ġthings":902,"hen":903,"ible":904,"Ġseems":905,"ks":906,"Ġscreen":907,"Ġquite":908,"Ġrel":909,"ster":910,"ced":911,"ically":912,"iting":913,"Ġenough":914,"ction":915,"00":916,"ween":917,"Ġpretty":918,"ings":919,"Ġapp":920,"Ġright":921,"Ġscript":922,"Ġhard":923,"Ġworld":924,"ately":925,"onder":926,"ave":927,"Ġsha":928,"Ġco":929,"ead":930,"Ġkid":931,"ĠAmeric":932,"Ġtr":933,"most":934,"aut":935,"Ġoriginal":936,"ways":937,"Ġbetween":938,"Ġtake":939,"rill":940,"Ġsex":941,"Ġmust":942,"Ġsec":943,"Ġhigh":944,"Ġhorror":945,"Ġacc":946,"Ġfar":947,"utes":948,"Ġperson":949,"ness":950,"Ġlead":951,"ward":952,"Ġgive":953,"Ġes":954,"hes":955,"ention":956,"Ġneed":957,"ĠAs":958,"ched":959,"Ġrole":960,"Ġappe":961,"ner":962,"Ġkind":963,"co":964,"Ġop":965,"app":966,"vious":967,"ĠShe":968,"Ġwhole":969,"Ġmom":970,"Ġinteresting":971,"ash":972,"row":973,"its":974,"orth":975,"ĠHow":976,"Ġbu":977,"Ġcomedy":978,"\",":979,"Ġleast":980,"Ġtell":981,"Ġwonder":982,"Ġseries":983,"Ġisn":984,"ord":985,"inem":986,"ĠThey":987,"\".":988,"gg":989,"ime":990,"Ġboth":991,"Ġmain":992,"Ġhel":993,"Ġdiffe":994,"Ġalways":995,"Ġchild":996,"Ġput":997,"Ġgets":998,"Ġcome":999,"ody":1000,"Ġmusic":1001,"Ġexpl":1002,"Ġhand":1003,"Ġtimes":1004,"Ġexpect":1005,"ĠYou":1006,"Ġsaw":1007,"icul":1008,"Ġbas":1009,"hn":1010,"ully":1011,".\"":1012,"uring":1013,"Ġcam":1014,"here":1015,"Ġminutes":1016,"ife":1017,"Ġsho":1018,"Ġwithout":1019,"Ġ3":1020,"Ġlast":1021,"Ġide":1022,"Ġmight":1023,"Ġclass":1024,"Ġdone":1025,"Ġbegin":1026,"rible":1027,"view":1028,"Ġlaugh":1029,"Ġalmost":1030,"'ll":1031,"xt":1032,"ines":1033,"Ġread":1034,"Ġcomplete":1035,"Ġperformance":1036,"ray":1037,"Ġbo":1038,"Ġsequ":1039,"Ġcare":1040,"Ġcour":1041,"bably":1042,"ok":1043,"Ġcle":1044,"Ġinst":1045,"ail":1046,"Ġshot":1047,"stand":1048,"cially":1049,"Ġaud":1050,"Ġentertain":1051,"pris":1052,"ee":1053,"Ġaway":1054,"ouse":1055,"Ġcinem":1056,"Ġanything":1057,"Ġwar":1058,"Ġcr":1059,"Ġsince":1060,"Ġbeaut":1061,"ros":1062,"though":1063,"Ġfound":1064,"Ġel":1065,"Ġrun":1066,"ock":1067,"Ġsound":1068,"ialog":1069,"Ġcons":1070,"Ġep":1071,"Ġcar":1072,"oney":1073,"ative":1074,"Ġcall":1075,"Ġfamily":1076,"era":1077,"Ġbook":1078,"Ġext":1079,"wood":1080,"Ġdialog":1081,"pecially":1082,"Ġhappen":1083,"Ġwoman":1084,"uck":1085,"ret":1086,"Ġworth":1087,"led":1088,"Ġdifferent":1089,"son":1090,"It":1091,"Ġprobably":1092,"Ġins":1093,"ĠBe":1094,"ling":1095,"ures":1096,"Ġsure":1097,"Ġrather":1098,"ject":1099,"Ġadd":1100,"ĠSo":1101,"Ġreason":1102,"mend":1103,"osed":1104,"Ġtrying":1105,"aster":1106,"Ġsense":1107,"ition":1108,"ĠTV":1109,"ograp":1110,"ither":1111,"Ġkeep":1112,"ĠJohn":1113,"ER":1114,"ane":1115,"als":1116,"Ġlik":1117,"dd":1118,"ates":1119,"ingly":1120,"ms":1121,"ex":1122,"oint":1123,"ĠWhat":1124,"....":1125,"Ġbor":1126,"Ġour":1127,"Ġworst":1128,"Ġty":1129,"Ġplace":1130,"Ġpoor":1131,"arent":1132,"Ġpres":1133,"Ġart":1134,"Ġmat":1135,"Ġyet":1136,"Ġlet":1137,"ten":1138,"Ġchan":1139,"Ġpol":1140,"Ġdel":1141,"VD":1142,"Ġcourse":1143,"Ġ10":1144,"Ġmaking":1145,"Ġsurpris":1146,"Ġbelieve":1147,"Ġabs":1148,"olly":1149,"Ġinter":1150,"Ġending":1151,"Ġcomes":1152,"Ġeach":1153,"istic":1154,"arr":1155,"ĠDe":1156,"Ġshows":1157,"hip":1158,"Ġmean":1159,"Ġgoes":1160,"Ġhelp":1161,"ĠThat":1162,"ower":1163,"ĠCha":1164,"Ġplayed":1165,"Ġcre":1166,"ov":1167,"Ġconf":1168,"Ġmind":1169,"Ġproble":1170,"apt":1171,"ĠDVD":1172,"umb":1173,"ĠAll":1174,"ortun":1175,"Ġgra":1176,"Ġjob":1177,"empt":1178,"ments":1179,"Ġplays":1180,"Ġanyone":1181,"ident":1182,"ics":1183,"Ġstand":1184,"Ġac":1185,"Ġless":1186,"lud":1187,"Ġmoney":1188,"Ġboy":1189,"ins":1190,"Ġlooks":1191,"ilar":1192,"Ġcreat":1193,"ĠWe":1194,"'d":1195,"Ġday":1196,"ont":1197,"Ġgl":1198,"Ġdef":1199,"reak":1200,"Ġeffects":1201,"sc":1202,"read":1203,"ommend":1204,"Ġwasn":1205,"Ġrest":1206,"Ġhead":1207,"gether":1208,"Ġtogether":1209,"Ġdram":1210,"Ġlooking":1211,"ollow":1212,"Ġhaving":1213,"Ġperfect":1214,"ality":1215,"ĠMar":1216,"isod":1217,"Ġbeautif":1218,"Ġsecond":1219,"io":1220,"Ġtakes":1221,"ream":1222,"Ġactor":1223,"Ġsaid":1224,"Ġcertain":1225,"Ġport":1226,"inc":1227,"Ġmiss":1228,"Ġvers":1229,"Ġmem":1230,"Ġexper":1231,"iece":1232,"Ġfan":1233,"ĠAmerican":1234,"ied":1235,"ross":1236,"Ġsuper":1237,"Ġunderstand":1238,"Ġtalk":1239,"arn":1240,"Ġepisod":1241,"ĠNot":1242,"Ġspecial":1243,"land":1244,"ĠAn":1245,"ism":1246,"Ġnight":1247,"ney":1248,"Ġrecommend":1249,"Ġaudience":1250,"Ġposs":1251,"icha":1252,"Ġelse":1253,"Ġthree":1254,"way":1255,"Ġsit":1256,"ues":1257,"Ġshort":1258,"ollywood":1259,"hile":1260,"Ġcomm":1261,"iol":1262,"Ġwatched":1263,"leas":1264,"ĠTH":1265,"Ġespecially":1266,"ĠSc":1267,"Ġsomeone":1268,"Ġdet":1269,"ired":1270,"Ġexc":1271,"ited":1272,"Ġsk":1273,"Ġfall":1274,"cept":1275,"ĠFor":1276,"Ġhalf":1277,"ply":1278,"llent":1279,"Ġfollow":1280,"day":1281,"ted":1282,"ĠRob":1283,"ĠBl":1284,"ĠTh":1285,"Ġhimself":1286,"Ġmon":1287,"ists":1288,"Ġmur":1289,"Ġfav":1290,"att":1291,"udget":1292,"old":1293,"Ġed":1294,"Ġreview":1295,"10":1296,"Ġduring":1297,"Ġuse":1298,"Ġinvol":1299,"Ġfight":1300,"Ġmar":1301,"Ġobvious":1302,"ĠCl":1303,"ix":1304,"not":1305,"atic":1306,"Ġvis":1307,"ames":1308,"Ġnice":1309,"Ġidea":1310,"Ġmen":1311,"Ġleft":1312,"Ġentire":1313,"uff":1314,"Ġtrue":1315,"ec":1316,"Ġused":1317,"Ġwife":1318,"ides":1319,"Ġhour":1320,"Ġcame":1321,"ork":1322,"ĠUn":1323,"Ġstr":1324,"Ġfriends":1325,"ional":1326,"Ġtot":1327,"sy":1328,"Ġdist":1329,"fully":1330,"ier":1331,"Ġhist":1332,"upid":1333,"Ġseeing":1334,"Ġeveryone":1335,"Ġfeat":1336,"hool":1337,"Ġonce":1338,"ah":1339,"Ġgener":1340,"Ġeverything":1341,"Ġlow":1342,"Ġsimply":1343,"Ġcho":1344,"Ġimag":1345,"Ġattempt":1346,"Ġexcellent":1347,"Ġele":1348,"Ġunt":1349,"Ġtal":1350,"Ġcompletely":1351,"ien":1352,"omb":1353,"Ġdeath":1354,"Ġlater":1355,"Ġhome":1356,"appoint":1357,"rist":1358,"ger":1359,"ove":1360,"yle":1361,"Ġey":1362,"ool":1363,"ount":1364,"Ġyear":1365,"Ġfather":1366,"Ġret":1367,"ared":1368,"like":1369,"air":1370,"orn":1371,"Ġdisappoint":1372,"Ġlack":1373,"Ġsing":1374,"Ġstupid":1375,"ĠRe":1376,"ird":1377,"Ġph":1378,"Ġperformances":1379,"Ġviol":1380,"Ġtit":1381,"my":1382,"Ġ4":1383,"Ġstar":1384,"Ġrep":1385,"Ġcop":1386,"olute":1387,"ĠHollywood":1388,"Ġass":1389,"cy":1390,"Ġbeautiful":1391,"but":1392,"iter":1393,"Ġcra":1394,"atch":1395,"Ġportray":1396,"med":1397,"Ġversion":1398,"Ġinclud":1399,"Ġcouple":1400,"Ġhuman":1401,"Ġpict":1402,"ĠWhen":1403,"Ġalong":1404,"Ġboring":1405,"Ġopen":1406,"ott":1407,"Ġhero":1408,"Ġline":1409,"ying":1410,"Ġdefin":1411,"Ġword":1412,"Ġserious":1413,"Ġwrong":1414,"orm":1415,"Ġstud":1416,"Ġwomen":1417,"Ġ--":1418,"Ġsy":1419,"Ġconc":1420,"Ġsupposed":1421,"Ġtop":1422,"ike":1423,"Ġmess":1424,"ider":1425,"haps":1426,"Ġhope":1427,"ery":1428,"Ġeas":1429,"Ġind":1430,"Ġheart":1431,"Ġcamera":1432,"ities":1433,"Ġloc":1434,"Ġremem":1435,"ĠHowever":1436,"uth":1437,"ĠSp":1438,"tern":1439,"play":1440,"Ġsmall":1441,"Ġmother":1442,"lease":1443,"Ġcount":1444,"ets":1445,"ĠAr":1446,"Ġhumor":1447,"fic":1448,"Ġuntil":1449,"ĠOne":1450,"idd":1451,"Ġeither":1452,"ideo":1453,"Ã©":1454,"velop":1455,"ax":1456,"Ġhat":1457,"itten":1458,"Ġmoments":1459,"Ġbecom":1460,"Ġflick":1461,"Ġblack":1462,"Ġkids":1463,"Ġemot":1464,"Ġ5":1465,"Ġfail":1466,"Ġabsolute":1467,"fortun":1468,",\"":1469,"Ġhouse":1470,"Ġgiven":1471,"ĠHar":1472,"Ġpass":1473,"Ġlight":1474,"ĠWill":1475,"itely":1476,"ains":1477,"ĠZ":1478,"iness":1479,"Ġdra":1480,"ography":1481,"sel":1482,"elt":1483,"Ġbudget":1484,"ĠMy":1485,"Ġanim":1486,"mak":1487,"Ġsad":1488,"Ġinstead":1489,"In":1490,"Ġdead":1491,"Ġitself":1492,"Ġgetting":1493,"enn":1494,"Ġname":1495,"Ġ8":1496,"Ġrom":1497,"ote":1498,"Ġconv":1499,"Ġschool":1500,"Ġexp":1501,"Ġfull":1502,"Ġproduction":1503,"aring":1504,"Ġnext":1505,"ĠNo":1506,"ĠMan":1507,"ĠSte":1508,"com":1509,"Ġsong":1510,"Ġtruly":1511,"aj":1512,"Ġwon":1513,"Ġsort":1514,"ize":1515,"Ġcred":1516,"iant":1517,"ories":1518,"ĠAt":1519,"Ġface":1520,"IN":1521,"ĠFran":1522,"ters":1523,"Ġreg":1524,"Ġgives":1525,"Ġdri":1526,"Ġclassic":1527,"Ġcoll":1528,"Ġpower":1529,"Ġparticul":1530,"Ġdoing":1531,"Ġdep":1532,"ument":1533,"ric":1534,"Ġfavor":1535,"Ġentertaining":1536,"Ġexam":1537,"ility":1538,"Ġothers":1539,"ts":1540,"illy":1541,"Ġ9":1542,"Ġexcept":1543,"Ġdevelop":1544,"Ġdialogue":1545,"Ġwent":1546,"Ġpain":1547,"ĠLe":1548,"ug":1549,"oid":1550,"ently":1551,"Ġterrible":1552,"Ġlines":1553,"Ġplaying":1554,"rom":1555,"Ġamaz":1556,"Ġawful":1557,"que":1558,"ined":1559,"reme":1560,"ĠNew":1561,"Ġtalent":1562,"imes":1563,"Ġbecome":1564,"right":1565,"Ġwa":1566,"Ġoften":1567,"ĠÂ":1568,"Ġslow":1569,"Ġadv":1570,"ĠOn":1571,"Ġcouldn":1572,"Ġlive":1573,"Ġref":1574,"mp":1575,"Ġhowever":1576,"na":1577,"ibly":1578,"tic":1579,"ĠMc":1580,"ĠTHE":1581,"Ġquest":1582,"Ġguess":1583,"Ġwonderful":1584,"Ġ7":1585,"ĠSe":1586,"ized":1587,"Ġmis":1588,"Ġann":1589,"oon":1590,"riend":1591,"Ġliked":1592,"Ġcase":1593,"iam":1594,"Ġcor":1595,"Ġproblem":1596,"Ġvideo":1597,"Ġcut":1598,"Ġearly":1599,"line":1600,"itch":1601,"ĠCar":1602,"round":1603,"ony":1604,"Ġactress":1605,"Ġdark":1606,"Ġstyle":1607,"ĠMr":1608,"Ġremember":1609,"Ġmaybe":1610,"ank":1611,"Ġrelations":1612,"ured":1613,"und":1614,"ler":1615,"Ġstars":1616,"anc":1617,"ming":1618,"Ġclose":1619,"selves":1620,"Ġ.":1621,"Ġbrill":1622,"Ġpar":1623,"Ġrid":1624,"Ġagainst":1625,"Ġtitle":1626,"Ġmention":1627,"Ġstrong":1628,"If":1629,"hol":1630,"ĠDav":1631,"ton":1632,"aughter":1633,"Ġdefinitely":1634,"Ġpiece":1635,"pped":1636,"ĠWell":1637,"ccess":1638,"ĠDon":1639,"Ġside":1640,"Ġdirection":1641,"Ġguys":1642,"ĠChrist":1643,"vis":1644,"Ġblood":1645,"Ġsever":1646,"Ġimpress":1647,"Ġtran":1648,"ular":1649,"pite":1650,"oub":1651,"ump":1652,"Ġgrou":1653,"Ġchildren":1654,"Ġsw":1655,"rop":1656,"Ġpast":1657,"Ġvill":1658,"Ġlives":1659,"unk":1660,"used":1661,"Ġbeginning":1662,"Ġfelt":1663,"Ġseemed":1664,"cha":1665,"oot":1666,"Ġseveral":1667,"Ġthrill":1668,"Ġepisode":1669,"Ġpicture":1670,"Ġcertainly":1671,"Ġrent":1672,"Ġextreme":1673,"body":1674,"Ġwaste":1675,"Ġfans":1676,"ley":1677,"Ġrelationship":1678,"fortunately":1679,"Ġform":1680,"ĠJack":1681,"Ġz":1682,"Ġworse":1683,"Ġav":1684,"Ġson":1685,"Ġdrama":1686,"Ġbrother":1687,"unch":1688,"Ġtown":1689,"ots":1690,"Ġstran":1691,"ready":1692,"Ġpop":1693,"what":1694,"Ġpred":1695,"Ġabsolutely":1696,"Ġgame":1697,"Ġbecomes":1698,"ĠHis":1699,"ages":1700,"Ġpat":1701,"Ġwritten":1702,"Ġable":1703,"ried":1704,"Ġgenre":1705,"to":1706,"Ġself":1707,"ĠEven":1708,"Ġsuccess":1709,"Ġadm":1710,"Ġtotally":1711,"Ġwanted":1712,"ĠSome":1713,"ern":1714,"rown":1715,"uc":1716,"Ġtou":1717,"Ġbrilliant":1718,"lish":1719,"Ġocc":1720,"Ġalready":1721,"Ġinf":1722,"Ġdoc":1723,"ĠEng":1724,"Ġsupport":1725,"ey":1726,"gu":1727,"Ġfine":1728,"Ġvo":1729,"Ġmaster":1730,"Ġbased":1731,"vable":1732,"cess":1733,"Ġprov":1734,"Ġcult":1735,"Ġet":1736,"19":1737,"Ġimport":1738,"Ġlost":1739,"Ġstra":1740,"rew":1741,"Ġfant":1742,"Ġsat":1743,"Ġteen":1744,"ific":1745,"There":1746,"Ġtries":1747,"Ġcinema":1748,"Ġchar":1749,"uss":1750,"Ġdem":1751,"Ġalthough":1752,"Ġcent":1753,"Ġnat":1754,"ĠQ":1755,"Ġpresent":1756,"oil":1757,"Ġmyster":1758,"ief":1759,"Ġwants":1760,"ided":1761,"Ġthemselves":1762,"Ġstarts":1763,"Ġhistory":1764,"Ġgroup":1765,"yn":1766,"amp":1767,"Ġcalled":1768,"Ġbreak":1769,"ged":1770,"Ġthroughout":1771,"Ġpur":1772,"Ġval":1773,"Ġeff":1774,"ĠTo":1775,"Ġstuff":1776,"band":1777,"Ġhon":1778,"Ġannoy":1779,"Ġloved":1780,"Ġappear":1781,"Ġmatter":1782,"Ġsitu":1783,"Ġkilled":1784,"Ġviewer":1785,"itive":1786,"Ġsequel":1787,"by":1788,"Ġmor":1789,"ik":1790,"ung":1791,"Ġquality":1792,"using":1793,"ĠAfter":1794,"Ġstop":1795,"ĠInd":1796,"orge":1797,"Ġfair":1798,"chn":1799,"where":1800,"Ġenjoyed":1801,"Ġwriting":1802,"Ġparts":1803,"Ġpsy":1804,"Ġfinal":1805,"Ġdeser":1806,"ination":1807,"Ġtoday":1808,"Ġlevel":1809,"ĠÂĸ":1810,"mb":1811,"Ġturns":1812,"Ġnum":1813,"Ġtyp":1814,"Ġfem":1815,"Ġdeal":1816,"ĠIs":1817,"Ġwalk":1818,"Ġsusp":1819,"ene":1820,"ished":1821,"Ġhorrible":1822,"hind":1823,"off":1824,"iet":1825,"ĠRobert":1826,"Ġcomment":1827,"usband":1828,"Ġ,":1829,"Ġexact":1830,"Ġmag":1831,"use":1832,"Ġkiller":1833,"Ġcapt":1834,"Ġlearn":1835,"Ġnovel":1836,"Ġetc":1837,"??":1838,"Ġdeli":1839,"ator":1840,"rib":1841,"Ġdecent":1842,"ichael":1843,"Ġbra":1844,"Ġcontin":1845,"Ġworks":1846,"Ġdocument":1847,"ron":1848,"ude":1849,"rodu":1850,"nded":1851,"ĠChar":1852,"ĠSha":1853,"Ġexample":1854,"Ġgave":1855,"oke":1856,"Ġdays":1857,"ister":1858,"Ġmed":1859,"Ġdaughter":1860,"Ġlea":1861,"Ġopp":1862,"ĠWith":1863,"Ġcol":1864,"ĠThen":1865,"ĠHer":1866,"ape":1867,"Ġbus":1868,"Ġprof":1869,"Ġhilar":1870,"ajor":1871,"hich":1872,"Ġlist":1873,"ĠAlso":1874,"iculous":1875,"Ġmoment":1876,"ural":1877,"Ġviolence":1878,"ma":1879,"ese":1880,"Ġgun":1881,"rison":1882,"Ġprom":1883,"ient":1884,"OT":1885,"ĠBrit":1886,"Ġfore":1887,"ann":1888,"ering":1889,"Ġtype":1890,"ches":1891,"Ġeffort":1892,"Ġfavorite":1893,"Ġthinking":1894,"Ġevil":1895,"ences":1896,"Ġfinally":1897,"Ġbehind":1898,"Ġmurder":1899,"Ġmyself":1900,"ior":1901,"yp":1902,"Ġmot":1903,"Ġhusband":1904,"ĠBr":1905,"Ġhappened":1906,"Ġhold":1907,"Ġir":1908,"Ġcost":1909,"antly":1910,"Ġsays":1911,"Ġperhaps":1912,"dy":1913,"Ġask":1914,"wards":1915,"Ġcrit":1916,"ives":1917,"gs":1918,"Ġchang":1919,"Ġconst":1920,"Ġtrans":1921,"Ġexperience":1922,"Ġhappens":1923,"lt":1924,"Ġfig":1925,"Ġpick":1926,"ĠWar":1927,"Ġtook":1928,"Ġresult":1929,"ĠWhile":1930,"Ġroles":1931,"ĠKe":1932,"ox":1933,"ĠWhy":1934,"Ġlate":1935,"Ġsoon":1936,"AN":1937,"Ġstories":1938,"astic":1939,"urt":1940,"Ġhilarious":1941,"ield":1942,"Ġstru":1943,"Ġamazing":1944,"ards":1945,"side":1946,"Ġintell":1947,"Ġheard":1948,"Ġroom":1949,"Ġfoot":1950,"Ġsol":1951,"Ġextremely":1952,"Ġspeak":1953,"ĠOf":1954,"Ġlooked":1955,"Ġconsider":1956,"ĠPl":1957,"Ġeyes":1958,"Ġridiculous":1959,"Ġsle":1960,"Ġnon":1961,"Ġdirected":1962,"Ġfeeling":1963,"cks":1964,"Ġesc":1965,"Ġinvolved":1966,"ution":1967,"Ġtaken":1968,"rench":1969,"!!!":1970,"Ġscore":1971,"ones":1972,"IL":1973,"ovie":1974,"Ġmajor":1975,"leased":1976,"Ġincred":1977,"aid":1978,"Ġcool":1979,"Ġdr":1980,"ĠCon":1981,"Ġreturn":1982,"Ġwouldn":1983,"Ġdisco":1984,"Ġage":1985,"ians":1986,"What":1987,"okes":1988,"Ġopin":1989,"Ġleave":1990,"Ġknown":1991,"Ġmet":1992,"Ġdev":1993,"uge":1994,"nds":1995,"Ġste":1996,"antic":1997,"ĠMay":1998,"Ġallow":1999,".)":2000,"urb":2001,"Ġcoming":2002,"Ġcareer":2003,"amed":2004,"ĠGod":2005,"Ġparent":2006,"ement":2007,"Ġbring":2008,"ON":2009,"Ġuni":2010,"Ġvoice":2011,"As":2012,"ĠGe":2013,"AT":2014,"Ġgang":2015,"Ġweak":2016,"iddle":2017,"Ġquick":2018,"Ġgirls":2019,"ean":2020,"Ġstay":2021,"Ġstrange":2022,"Ġcinemat":2023,"Ġsn":2024,"Ġtold":2025,"Ġacross":2026,"ĠTom":2027,"Ġcheap":2028,"Ġshoot":2029,"bel":2030,"Ġstre":2031,"ky":2032,"iety":2033,"Ġfut":2034,"arth":2035,"Ġago":2036,"ats":2037,"ouble":2038,"Ġvar":2039,"ĠMichael":2040,"Ġchance":2041,"Ġpredict":2042,"arb":2043,"ĠNow":2044,"Ġtele":2045,"Ġpolit":2046,"Ġswe":2047,"ph":2048,"any":2049,"Ġmove":2050,"Ġproduc":2051,"ubl":2052,"Ġhours":2053,"of":2054,"aged":2055,"Ġbuild":2056,"zy":2057,"ered":2058,"key":2059,"Ġsimple":2060,"ĠDavid":2061,"enty":2062,"Ġcountry":2063,"Ġinde":2064,"Ġwhite":2065,"ĠEvery":2066,"Ġpay":2067,"ĠGer":2068,"ST":2069,"head":2070,"Ġcannot":2071,"Ġpolice":2072,"Ġannoying":2073,"Ġca":2074,"Ġhit":2075,"Ġtechn":2076,"Ġstraight":2077,"Ġobviously":2078,"Ġfour":2079,"Ġimportant":2080,"Ġexactly":2081,"ĠNe":2082,"Ġsimilar":2083,"Ġshock":2084,"ĠWilliam":2085,"Ġdisc":2086,"Ġcrap":2087,"Ġdream":2088,"Ġends":2089,"rest":2090,"Ġfinds":2091,"iction":2092,"ground":2093,"arently":2094,"OR":2095,"aul":2096,"Ġhonest":2097,"Ġdesc":2098,"Ġpot":2099,"ĠEd":2100,"Ġlar":2101,"ili":2102,"Ġgore":2103,"Ġwriter":2104,"ury":2105,"Ġve":2106,"ĠPet":2107,"pping":2108,"Ġfemale":2109,"ichÃ©":2110,"Ġorder":2111,"Ġprem":2112,"And":2113,"Ġevent":2114,"estern":2115,"Ġpull":2116,"Ġ200":2117,"Ġfoc":2118,"ĠOr":2119,"arch":2120,"Ġprot":2121,"aim":2122,"hetic":2123,"Ġtreat":2124,"Ġdeep":2125,"ential":2126,"Ġattention":2127,"Ġpos":2128,"ational":2129,"Ġsomewhat":2130,"Ġsave":2131,"AR":2132,"wise":2133,"ĠAd":2134,"aug":2135,"****":2136,"che":2137,"tra":2138,"rence":2139,"Ġopinion":2140,"gan":2141,"Ġdoub":2142,"Ġshown":2143,"Ġhighly":2144,"Ġdocumentary":2145,"Ġhot":2146,"mos":2147,"real":2148,"Ġforget":2149,"ĠPe":2150,"Ġdisappointed":2151,"Ġturned":2152,"ina":2153,"Ġair":2154,"Ġwin":2155,"Ġang":2156,"outh":2157,"Ġsuspense":2158,"Ġfilmmak":2159,"Ġpossible":2160,"Ġsilly":2161,"Ġrunning":2162,"ichard":2163,"Ġliving":2164,"Ġ6":2165,"Ġunc":2166,"Ġdest":2167,"Ġsurv":2168,"Ġwhose":2169,"Ġusual":2170,"ral":2171,"Ġhuge":2172,"Ġchange":2173,"ĠclichÃ©":2174,"Ġphot":2175,"ĠEnglish":2176,"Ġmoder":2177,"oud":2178,"rol":2179,"olog":2180,"Ġsubt":2181,"Ġsingle":2182,"Ġill":2183,"Ġyourself":2184,"ĠDan":2185,"Ġbody":2186,"ĠDo":2187,"Ġsaying":2188,"Ġstarted":2189,"Ġreality":2190,"But":2191,"Ġhell":2192,"back":2193,"Ġopening":2194,"Ġparticularly":2195,"sh":2196,"Ġnear":2197,"eng":2198,"Ġsometimes":2199,"Ġnumber":2200,"ĠSh":2201,"ald":2202,"itting":2203,"lling":2204,"Ġdespite":2205,"usion":2206,"ĠJust":2207,"Ġtouch":2208,"otic":2209,"ĠJames":2210,"ING":2211,"Ġtaking":2212,"Ġsets":2213,"Ġdetail":2214,"Ġequ":2215,"Ġunf":2216,"Ġvict":2217,"Ġfill":2218,"Ġsubject":2219,"aught":2220,"Ġmeet":2221,"Ġjokes":2222,"go":2223,"vision":2224,"rant":2225,"Ġwords":2226,"Ġwish":2227,"ained":2228,"Ġcart":2229,"Ġplan":2230,"nding":2231,"Ġemb":2232,"Ġreleased":2233,"rely":2234,"yond":2235,"Ġalone":2236,"Ġproblems":2237,"Ġteam":2238,"ĠPer":2239,"aced":2240,"Ġknows":2241,"Ġknew":2242,"Ġincluding":2243,"Ġparents":2244,"ĠYork":2245,"Ġmiddle":2246,"Ġinn":2247,"unt":2248,"!\"":2249,"Ġut":2250,"Ġones":2251,"Ġrespect":2252,"Ġtells":2253,"Ġcinematography":2254,"Ġsent":2255,"Ġapart":2256,"Ġshots":2257,"Ġremind":2258,"Ġland":2259,"Ġlocal":2260,"mosp":2261,"oul":2262,"attle":2263,"Ġevents":2264,"Ġusually":2265,"Ġamong":2266,"who":2267,"EN":2268,"ys":2269,"ised":2270,"Ġprevious":2271,"ĠEl":2272,"Ġintellig":2273,"Ġfuture":2274,"Ġ20":2275,"Ġquestion":2276,"form":2277,"iod":2278,"Ġwee":2279,"Ġcompl":2280,"ĠBritish":2281,"uri":2282,"Ġant":2283,"els":2284,"Ġmodern":2285,"reci":2286,"Ġclear":2287,"eg":2288,"Ġpri":2289,"ĠCom":2290,"Ġsign":2291,"Ġstoryline":2292,"ival":2293,"Ġatmosp":2294,"Ġtalking":2295,"Ġmark":2296,"orable":2297,"vol":2298,"light":2299,"Ġbro":2300,"ĠSam":2301,"Ġhands":2302,"Ġattack":2303,"which":2304,"Ġnone":2305,"Ġult":2306,"ublic":2307,"rated":2308,"ush":2309,"ĠGra":2310,"Ġeng":2311,"Ġten":2312,"ĠUS":2313,"Ġways":2314,"orld":2315,"Ġrating":2316,"ĠAng":2317,"Ġaren":2318,"ford":2319,"Ġsequence":2320,"ura":2321,"Ġtwist":2322,"ices":2323,"Ġappears":2324,"Ġforg":2325,"Ġhop":2326,"ino":2327,"Ġmostly":2328,"Ġaspect":2329,"Ġscary":2330,"ball":2331,"Ġlaug":2332,"Ġear":2333,"Ġdue":2334,"Ġhate":2335,"ppy":2336,"ital":2337,"ĠRichard":2338,"Ġodd":2339,"ances":2340,"Ġpersonal":2341,"Ġcomic":2342,"Ġbegins":2343,"Ġmist":2344,"orry":2345,"Ġmater":2346,"Ġiss":2347,"Ġsum":2348,"ctor":2349,"Ġbel":2350,"Ġflaw":2351,"ĠGerman":2352,"Ġelements":2353,"oor":2354,"Ġgiving":2355,"Ġclearly":2356,"Ġabove":2357,"Ġeasily":2358,"inal":2359,"Ġsuff":2360,"irector":2361,"Ġcamp":2362,"Ġhappy":2363,"ula":2364,"lin":2365,"Ġhaven":2366,"ĠAmerica":2367,"Ġromantic":2368,"ires":2369,"Ġprison":2370,"ĠAm":2371,"apan":2372,"Ġsexual":2373,"Ġmusical":2374,"Ġspoil":2375,"aris":2376,"Ġthriller":2377,"Ġlad":2378,"asc":2379,"Ġfast":2380,"Ġdru":2381,"Ġvictim":2382,"Ġmix":2383,"Ġbox":2384,"ggest":2385,"rid":2386,"Ġeasy":2387,"Ġstri":2388,"Ġbunch":2389,"Ġrob":2390,"Ġmaterial":2391,"Ġdull":2392,"Ġgay":2393,"Ġseriously":2394,"Ġnamed":2395,"Ġpredictable":2396,"Ġappreci":2397,"Ġtypical":2398,"verage":2399,"irt":2400,"Ġnarr":2401,"Ġsuggest":2402,"Ġprog":2403,"vent":2404,"iel":2405,"Ġfalls":2406,"oun":2407,"Ġsecret":2408,"Ġtheme":2409,"Ġenjoyable":2410,"Ġtruth":2411,"cl":2412,"irc":2413,"iest":2414,"Ġadult":2415,"asons":2416,"Ġreve":2417,"ĠAny":2418,"Ġleads":2419,"Ġsurprised":2420,"ubb":2421,"Ġsetting":2422,"Ġmil":2423,"Ġbeyond":2424,"Ġkept":2425,"Ġsens":2426,"Ġpoints":2427,"Ġperiod":2428,"Ġdoubt":2429,"Ġinsp":2430,"more":2431,"ĠFrench":2432,"Ġmessage":2433,"Ġslight":2434,"ening":2435,"work":2436,"uses":2437,"Ġworking":2438,"Ġ80":2439,"track":2440,"ira":2441,"ĠCol":2442,"Ġlarge":2443,"AL":2444,"Ġfilmed":2445,"ficult":2446,"Ġmeans":2447,"eth":2448,"ĠJapan":2449,"Ġcomb":2450,"Ġsil":2451,"Ġentertainment":2452,"',":2453,"Ġfree":2454,"Ġtried":2455,"Ġbrought":2456,"'.":2457,"hic":2458,"Ġviewers":2459,"Ġbar":2460,"Ġeye":2461,"ension":2462,"Ġfeels":2463,"Ġdifficult":2464,"Ġcrime":2465,"Ġcity":2466,"Ġwithin":2467,"ĠQu":2468,"ially":2469,"Ġtheat":2470,"Ġsequences":2471,"Ġbusiness":2472,"Ġnorm":2473,"St":2474,"asy":2475,"Ġrelease":2476,"Ġthrow":2477,"Ġpleas":2478,"Ġ197":2479,"Ġneeds":2480,"Ġupon":2481,"Ġtelevision":2482,"Ġsupporting":2483,"kay":2484,"Ġaccept":2485,"Ġgrand":2486,"ĠGeorge":2487,"king":2488,"ring":2489,"ĠBra":2490,"Ġcomments":2491,"My":2492,"ants":2493,"Ġcheck":2494,"Ġred":2495,"Ġsold":2496,"Ġpost":2497,"ara":2498,"set":2499,"gy":2500,"ĠLee":2501,"Ġherself":2502,"Ġdie":2503,"Ġshowing":2504,"Ġsoundtrack":2505,"Ġfeature":2506,"ising":2507,"Ġviewing":2508,"Ġ198":2509,"rific":2510,"ously":2511,"Ġdecided":2512,"iment":2513,"ressed":2514,"Ġclim":2515,"ĠBro":2516,"Ġavoid":2517,"OU":2518,"Ġstere":2519,"ĠFrank":2520,"esy":2521,"verall":2522,"ĠMart":2523,"bs":2524,"gic":2525,"Ġtale":2526,"Ġvisual":2527,"rey":2528,"Ġkilling":2529,"lier":2530,"Ġreviews":2531,"Ġpremise":2532,"host":2533,"Ġpsyc":2534,"Ġru":2535,"cing":2536,"llow":2537,"Ġcrew":2538,"Ġcreep":2539,"Ġsongs":2540,"Ġepisodes":2541,"Ġbelievable":2542,"Ġ*":2543,"Ġbab":2544,"?\"":2545,"Ġintrodu":2546,"Ġbackground":2547,"Ġzomb":2548,"Ġoverall":2549,"Ġexpected":2550,"ceed":2551,"ĠPaul":2552,"ĠNOT":2553,"Al":2554,"Ġwrit":2555,"Ġhear":2556,"Âħ":2557,"Ġbasically":2558,"ĠUnfortunately":2559,"ĠOsc":2560,"Ġusing":2561,"Ġgrow":2562,"You":2563,"Ġforced":2564,"ĠMaybe":2565,"ĠIM":2566,"ĠSm":2567,"ĠOK":2568,"Ġattract":2569,"Ġnearly":2570,"Ġbuy":2571,"Ġspir":2572,"esome":2573,"Ġlim":2574,"Ġlots":2575,"Ġer":2576,"Ġexplo":2577,"!!!!":2578,"bo":2579,"irlf":2580,"Ġfigure":2581,"Ġcur":2582,"ĠBen":2583,"ĠItal":2584,"irlfriend":2585,"Ġeffective":2586,"cted":2587,"Ġsoc":2588,"ows":2589,"incing":2590,"Ġresp":2591,"ĠPr":2592,"icks":2593,"Ġediting":2594,"Ġstereot":2595,"!)":2596,"ills":2597,"Ġrese":2598,"Ġexec":2599,"Ġrealistic":2600,"Ġleaves":2601,"Ġsuperb":2602,"RE":2603,"Ġid":2604,"Ġsurprise":2605,"ĠWood":2606,"ĠDr":2607,"Ġgone":2608,"Ġund":2609,"Ġactual":2610,"Ġpoorly":2611,"Ġbored":2612,"Ġaverage":2613,"Ġhar":2614,"ĠDis":2615,"Ġsituation":2616,"Ġultim":2617,"Ġwait":2618,"ges":2619,"ĠCan":2620,"dden":2621,"spect":2622,"aces":2623,"bers":2624,"kn":2625,"Ġmystery":2626,"Ġclever":2627,"over":2628,"Ġenc":2629,"Ġmoving":2630,"ining":2631,"Ġatmosphere":2632,"ĠOh":2633,"Ġmale":2634,"isf":2635,"Ġlame":2636,"Ġweird":2637,"So":2638,"piece":2639,"ĠChan":2640,"Ġinterested":2641,"Ġearlier":2642,"Ġfront":2643,"ries":2644,"Ġbecame":2645,"urther":2646,"ĠJul":2647,"Ġfamous":2648,"Ġinvest":2649,"Ġtowards":2650,"Ġexist":2651,"Ġobs":2652,"ĠGu":2653,"ius":2654,"Ġwit":2655,"Ġstage":2656,"reed":2657,"well":2658,"Ġproject":2659,"Ġvillain":2660,"erry":2661,"Ġutter":2662,"Ġconcept":2663,"hys":2664,"Ġappro":2665,"Ġfantastic":2666,"Ġheav":2667,"erous":2668,"Ġhom":2669,"Ġworked":2670,"Ġpublic":2671,"Ġapparently":2672,"ĠCra":2673,"Ġfive":2674,"pend":2675,"An":2676,"Ġpure":2677,"ĠMor":2678,"Ġsudden":2679,"Ġprofess":2680,"aling":2681,"When":2682,"Ġpowerful":2683,"oof":2684,"Ġtheater":2685,"Ġparticular":2686,"Ġcostum":2687,"Ġfootage":2688,"uro":2689,"ĠWho":2690,"ĠAlthough":2691,"ĠPeter":2692,"Ġthird":2693,"ĠFilm":2694,"Ġadapt":2695,"fer":2696,"lly":2697,"Ġran":2698,"Ġsociety":2699,"Ġlos":2700,"Ġminute":2701,"ye":2702,"ogn":2703,"Ġdog":2704,"Ġrich":2705,"iences":2706,"Ġstrugg":2707,"sw":2708,"Ġgeneral":2709,"Ġtre":2710,"roy":2711,"ĠFrom":2712,"hel":2713,"Ġwood":2714,"Ġmeaning":2715,"Ġcirc":2716,"Ġ199":2717,"Ġcheesy":2718,"Ġscreenplay":2719,"Ġmemorable":2720,"Ġcat":2721,"olf":2722,"akes":2723,"Ġlaughs":2724,"Ġquickly":2725,"Ġpossibly":2726,"friend":2727,"ĠMost":2728,"Ġunique":2729,"Ġgirlfriend":2730,"min":2731,"Ġsister":2732,"omp":2733,"Ġcredits":2734,"andy":2735,"Ġfeatures":2736,"Ġperfectly":2737,"ĠBlack":2738,"Ġkeeps":2739,"cious":2740,"ective":2741,"ding":2742,"Ġlaw":2743,"Ġsomehow":2744,"ĠEn":2745,"Ġdumb":2746,"hood":2747,"ager":2748,"Ġexpress":2749,"Ġgreatest":2750,"iliar":2751,"Ġ30":2752,"ĠEx":2753,"angu":2754,"time":2755,"Ġstun":2756,"Ġcover":2757,"ĠYes":2758,"Ġhistor":2759,"Ġwhether":2760,"Ġanimation":2761,"Ġvarious":2762,"rif":2763,"acher":2764,"ises":2765,"Ġolder":2766,"Ġdisturb":2767,"ĠDra":2768,"Ġrealize":2769,"bl":2770,"this":2771,"\")":2772,"ask":2773,"Ġshame":2774,"Ġwriters":2775,"Ġcap":2776,"Ġliter":2777,"Ġnor":2778,"ĠTw":2779,"Ġmonster":2780,"bert":2781,"Ġreading":2782,"Ġmeant":2783,"Ġromance":2784,"Ġyes":2785,"Ġwhom":2786,"Ġrock":2787,"ĠOscar":2788,"su":2789,"Ġpurp":2790,"Ġdam":2791,"urd":2792,"nel":2793,"vin":2794,"Ġadvent":2795,"stead":2796,"Ġtotal":2797,"Ġemotional":2798,"Ġdevelopment":2799,"belie":2800,"agon":2801,"por":2802,"Ġneeded":2803,"Ġ70":2804,"pper":2805,"Ġmanages":2806,"Ġcopy":2807,"Ġtast":2808,"Ġcry":2809,"ionally":2810,"yl":2811,"Ġformer":2812,"ĠJoe":2813,"ĠWorld":2814,"Ġfairly":2815,"arring":2816,"One":2817,"omin":2818,"Ġ193":2819,"val":2820,"rupt":2821,"cher":2822,"Ġmill":2823,"Ġextra":2824,"ĠIts":2825,"arre":2826,"Ġdesign":2827,"onic":2828,"cessary":2829,"Ġsick":2830,"ĠHarry":2831,"Ġbrings":2832,"Ġdramatic":2833,"Ġamount":2834,"Ġ...":2835,"Ġbattle":2836,"Ġrepe":2837,"ĠBill":2838,"Ġident":2839,"Ġwind":2840,"ĠThese":2841,"Ġconne":2842,"For":2843,"Ġterror":2844,"Ġaut":2845,"Ġneg":2846,"Ġimagine":2847,"Ġdirecting":2848,"itation":2849,"Ġpopular":2850,"Ġinnoc":2851,"Ġera":2852,"ĠPat":2853,"Ġflash":2854,"Ġcommun":2855,"ze":2856,"aked":2857,"ĠGood":2858,"Ġforward":2859,"ĠLike":2860,"ĠIMD":2861,"Ġanyway":2862,"Ġacted":2863,"ero":2864,"unny":2865,"Ġ90":2866,"Ġbare":2867,"arry":2868,"itty":2869,"erv":2870,"look":2871,"ĠKing":2872,"Ġbadly":2873,"ĠMad":2874,"af":2875,"with":2876,"Ġreasons":2877,"Ġarri":2878,"Ġagree":2879,"ips":2880,"Ġcatch":2881,"OO":2882,"Ġoper":2883,"itted":2884,"Ġ$":2885,"Ġoffic":2886,"berg":2887,"Ġideas":2888,"Ġsymp":2889,"Ġcolle":2890,"Ġ(\"":2891,"let":2892,"ĠFl":2893,"Ġclaim":2894,"Ġoccas":2895,"ived":2896,"chie":2897,"ivid":2898,"aper":2899,"Ġflat":2900,"ĠSim":2901,"ague":2902,"ki":2903,"Ġtelling":2904,"cked":2905,"ĠPh":2906,"Ġremake":2907,"ĠSw":2908,"Ġmeets":2909,"udity":2910,"Ġtravel":2911,"bit":2912,"eless":2913,"action":2914,"holog":2915,"Ġcreated":2916,"Ġadmit":2917,"Ġwrite":2918,"ging":2919,"ĠII":2920,"Ġoutside":2921,"Ġlaughing":2922,"LE":2923,"Ġble":2924,"ĠScott":2925,"Ġfire":2926,"Ġmissing":2927,"zz":2928,"writ":2929,"Ġmasterpiece":2930,"Ġpotential":2931,"orthy":2932,"Ġnature":2933,"?)":2934,"Ġeventually":2935,"Ġsocial":2936,"Ġcreate":2937,"ĠBy":2938,"Ġign":2939,"Ġplain":2940,"Ġunlike":2941,"Ġspace":2942,"Ġmarried":2943,"Ġleading":2944,"ope":2945,"Ġrecogn":2946,"Ġmurd":2947,"Ġcolor":2948,"Ġwasted":2949,"Ġfighting":2950,"Ġincredibly":2951,"Ġcartoon":2952,"Ġfails":2953,"Ġ195":2954,"Ġsleep":2955,"Ġcond":2956,"imp":2957,"Ġdeserves":2958,"Ġfasc":2959,"Ġimm":2960,"ĠJapanese":2961,"Ġstat":2962,"ĠChe":2963,"iny":2964,"kes":2965,"Ġjud":2966,"uine":2967,"Ġplease":2968,"Ġlangu":2969,"ĠJim":2970,"Ġportrayed":2971,"Ġindeed":2972,"Ġhair":2973,"Ġcommon":2974,"ham":2975,"Ġment":2976,"ĠEuro":2977,"oose":2978,"Ġfilmmakers":2979,"cle":2980,"Ġbeha":2981,"Ġwhatever":2982,"Ġmad":2983,"while":2984,"aking":2985,"aur":2986,"ĠHen":2987,"pth":2988,"PO":2989,"Ġcaught":2990,"Ġintri":2991,"Ġpolitical":2992,"mist":2993,"ole":2994,"rick":2995,"boy":2996,"Ġfamiliar":2997,"Ġexpecting":2998,"Ġplenty":2999,"ĠDisney":3000,"ĠFred":3001,"ĠEm":3002,"Ġphys":3003,"Ġidi":3004,"Ġest":3005,"ĠBru":3006,"ĠMon":3007,"une":3008,"edy":3009,"vil":3010,"000":3011,"Ġgenuine":3012,"Ġinside":3013,"lo":3014,"Ġpers":3015,"Ġdang":3016,"Ġnudity":3017,"Ġended":3018,"alth":3019,"fi":3020,"uter":3021,"ĠAnt":3022,"Ġwater":3023,"Ġcreepy":3024,"medi":3025,"Ġvalue":3026,"Ġstereotyp":3027,"Ġdirectors":3028,"Ġsweet":3029,"ĠMe":3030,"venge":3031,"Ġclos":3032,"con":3033,"Ġjoke":3034,"vern":3035,"iously":3036,"Ġspent":3037,"known":3038,"ĠBob":3039,"gest":3040,"ĠDead":3041,"ased":3042,"Ġscient":3043,"Ġescape":3044,"Ġsorry":3045,"ĠSu":3046,"Ġcrazy":3047,"ĠFirst":3048,"Ġmid":3049,"Ġrequ":3050,"ĠMac":3051,"Ġexplain":3052,"arrass":3053,"par":3054,"ites":3055,"Ġcollect":3056,"AD":3057,"All":3058,"Ġlat":3059,"Ġstore":3060,"ĠInstead":3061,"br":3062,"Ġcute":3063,"vered":3064,"Ġpointless":3065,"cent":3066,"ett":3067,"Ġdoll":3068,"bor":3069,"Ġdesper":3070,"ĠOther":3071,"Ġbrief":3072,"Ġaccident":3073,"ette":3074,"Ġtalented":3075,"cause":3076,"Ġ:":3077,"ened":3078,"Ġine":3079,"Ġparty":3080,"Ġviolent":3081,"Ġuses":3082,"Ġrad":3083,"Ġentirely":3084,"lu":3085,"ĠGreat":3086,"udd":3087,"Ġpace":3088,"sters":3089,"ĠHa":3090,"lict":3091,"ĠAust":3092,"Ġprop":3093,"Ġhy":3094,"Ġrecord":3095,"een":3096,"Ġfurther":3097,"room":3098,"ĠSer":3099,"Ġjour":3100,"Ġexciting":3101,"Ġsounds":3102,"ĠItalian":3103,"ned":3104,"Ġband":3105,"Ġfunn":3106,"Ġembarrass":3107,"oman":3108,"rage":3109,"ĠHol":3110,"Ġpositive":3111,"ĠIMDb":3112,"acing":3113,"Ġcomplex":3114,"TH":3115,"iller":3116,"Ġunbelie":3117,"izing":3118,"Ġstep":3119,"Ġcredit":3120,"Ġpu":3121,"Ġnote":3122,"Ġsatisf":3123,"Ġsolid":3124,"Ġslightly":3125,"Ġmer":3126,"Ġbiz":3127,"even":3128,"ĠPro":3129,"ossible":3130,"LY":3131,"har":3132,"Ġachie":3133,"Ġwestern":3134,"Ġdepth":3135,"Ġconcl":3136,"Ġconcern":3137,"gend":3138,"arl":3139,"Ġansw":3140,"ĠJoan":3141,"ĠLou":3142,"Jo":3143,"ĠAN":3144,"Ġseason":3145,"How":3146,"ĠDes":3147,"Ġ15":3148,"ele":3149,"Ġporn":3150,"Ġsearch":3151,"Ġcontrol":3152,"Ġdecides":3153,"Ġmedi":3154,"Ġfit":3155,"asher":3156,"Ġotherwise":3157,"Ġattempts":3158,"IS":3159,"no":3160,"Ġchoice":3161,"Ġcross":3162,"Ġmembers":3163,"Ġforgot":3164,"Ġaf":3165,"ĠGrant":3166,"sen":3167,"emy":3168,"Ġportrayal":3169,"Ġfear":3170,"Ġsituations":3171,"Ġdied":3172,"ilt":3173,"Ġfollows":3174,"Ġdanc":3175,"Ġrece":3176,"Ġtrad":3177,"Ġhardly":3178,"ĠTra":3179,"Ġmod":3180,"Ġspirit":3181,"irty":3182,"ĠHere":3183,"Ġmentioned":3184,"ĠMur":3185,"Ġmel":3186,"Ġluck":3187,"sequ":3188,"ĠOF":3189,"ashion":3190,"Ġ50":3191,"ĠLu":3192,"appe":3193,"Don":3194,"ĠEurope":3195,"ES":3196,"ieces":3197,"ĠRuss":3198,"Ġsubtle":3199,"Ġbrain":3200,"ĠNight":3201,"Ġimmedi":3202,"Ġshar":3203,"Ġlonger":3204,"gl":3205,"Ġess":3206,"exic":3207,"Ġintelligent":3208,"Ġamusing":3209,"Ġdelight":3210,"ĠMartin":3211,"rect":3212,"ĠWh":3213,"Ġtrail":3214,"ored":3215,"Ġsci":3216,"ĠVan":3217,"Ġinvestig":3218,"AS":3219,"Ġtort":3220,"ĠIndian":3221,"ĠAct":3222,"Ġculture":3223,"ĠAg":3224,"Ġ196":3225,"Ġdecide":3226,"Ġground":3227,"Ġtrouble":3228,"Ġmass":3229,"Ġminor":3230,"Ġwaiting":3231,"inary":3232,"lying":3233,"iving":3234,"Ġrecently":3235,"Ġcrim":3236,"Ġmoves":3237,"come":3238,"lex":3239,"Ġpurpose":3240,"Ġcasting":3241,"Ġconvincing":3242,"Ġappreciate":3243,"Ġaff":3244,"Ġcru":3245,"Ġwall":3246,"Ġimpro":3247,"men":3248,"movie":3249,"Ġhang":3250,"Ġopportun":3251,"Ġnotice":3252,"aging":3253,"Ġwrote":3254,"Ġbrut":3255,"Ġbother":3256,"Ġspend":3257,"Ġdraw":3258,"Ġbed":3259,"ĠMexic":3260,"Ġcontri":3261,"Ġfol":3262,"ĠJe":3263,"Ġlanguage":3264,"inger":3265,"resh":3266,"Ġsuspect":3267,"ED":3268,"ization":3269,"ibility":3270,"Ġrelig":3271,"fort":3272,"Ġinvolving":3273,"Ġalien":3274,"Ġregard":3275,"Ġdance":3276,"Ġrevol":3277,"Ġinterview":3278,"stit":3279,"riff":3280,"Ġproducers":3281,"Ġaccent":3282,"ribly":3283,"mes":3284,"ishing":3285,"Ġball":3286,"ĠLove":3287,"Ġdisg":3288,"Ġboys":3289,"Ġfollowing":3290,"Ġsuccessful":3291,"standing":3292,"Ġghost":3293,"Ġruns":3294,"Ġsees":3295,"Ġfilled":3296,"itary":3297,"Ġfocus":3298,"Ġproduced":3299,"Ġsqu":3300,"Ġhumour":3301,"Ġoccur":3302,"ken":3303,"ĠRobin":3304,"Ġtension":3305,"ener":3306,"Ġcompet":3307,"ille":3308,"ĠCity":3309,"arily":3310,"Ġremark":3311,"orror":3312,"Ġisland":3313,"ĠSat":3314,"Ġgovern":3315,"Ġthinks":3316,"Ġ194":3317,"Ġquestions":3318,"Ġissues":3319,"Ġthreat":3320,"Ġrand":3321,"Ġimpressive":3322,"Ġwild":3323,"ĠWatch":3324,"Ġdoctor":3325,"ĠBruce":3326,"Ġfake":3327,"ĠAb":3328,"rian":3329,"ensive":3330,"Ġnormal":3331,"Ġcollege":3332,"Ġrefe":3333,"ĠMary":3334,"amb":3335,"Ġbeauty":3336,"POIL":3337,"Ġtest":3338,"owers":3339,"iding":3340,"ĠMovie":3341,"Ġbomb":3342,"Ġtough":3343,"ĠJones":3344,"reg":3345,"Ġinte":3346,"plic":3347,"tt":3348,"Ġrepres":3349,"ras":3350,"Ġpathetic":3351,"iff":3352,"Ġtrain":3353,"Ġlady":3354,"Ġunin":3355,"Ġchanged":3356,"Ġunless":3357,"Ġship":3358,"Ġsoul":3359,"Ġfra":3360,"Ġbeat":3361,"idden":3362,"ength":3363,"mistry":3364,"POILER":3365,"Ġneither":3366,"Ġunfortunately":3367,"rel":3368,"uted":3369,"Ġbasic":3370,"Ġfantasy":3371,"iers":3372,"Ġbooks":3373,"ĠX":3374,"Ġforce":3375,"ĠAf":3376,"Ġawesome":3377,"Ġcompany":3378,"ĠAngel":3379,"Ġscream":3380,"Ġdrink":3381,"formation":3382,"lyn":3383,"Ġbiggest":3384,"idence":3385,"nie":3386,"Ġkick":3387,"Ġmissed":3388,"Ġbizarre":3389,"OM":3390,"Ġpun":3391,"Ġrate":3392,"Ġrandom":3393,"ini":3394,"Ġlaugha":3395,"Ġshowed":3396,"Ġrecent":3397,"Ġsmart":3398,"Ġjo":3399,"Ġride":3400,"Ġproduct":3401,"Ġlikes":3402,"izes":3403,"chable":3404,"Ġpract":3405,"Ġappearance":3406,"Ġbreat":3407,"Ġcompared":3408,"ĠStar":3409,"ai":3410,"Ġjump":3411,"Ġchemistry":3412,"Ġyounger":3413,"now":3414,"war":3415,"Ġweren":3416,"Ġcontinu":3417,"Ġinsult":3418,"Ġsuddenly":3419,"Ġflashback":3420,"Ġfascin":3421,"riage":3422,"Ġfailed":3423,"Ġvalues":3424,"Ġgenius":3425,"Ġconclusion":3426,"Ġdi":3427,"lect":3428,"Ġpresence":3429,"Ġbaby":3430,"Ġpack":3431,"Ġdro":3432,"ĠAllen":3433,"Ġbarely":3434,"Ġunex":3435,"Ġassum":3436,"Ġproper":3437,"Ġroll":3438,"lessly":3439,"***":3440,"cast":3441,"cock":3442,"Ġdepict":3443,"Ġstick":3444,"Ġplaces":3445,"ĠGl":3446,"Ġslasher":3447,"Ġanti":3448,"ĠBoy":3449,"ateur":3450,"hant":3451,"OW":3452,"iring":3453,"Ġrap":3454,"Ġglad":3455,"Ġdrug":3456,"ana":3457,"Ġrede":3458,"ĠMiss":3459,"ressing":3460,"Ġreveal":3461,"uel":3462,"Ġgarb":3463,"Ġdoor":3464,"Ġleg":3465,"Ġmood":3466,"ĠMoo":3467,"Ġoffice":3468,"Ġrespons":3469,"Not":3470,"On":3471,"Ġauth":3472,"illa":3473,"Ġsuc":3474,"cer":3475,"Ġrare":3476,"Ġavail":3477,"Ġdeliver":3478,"ified":3479,"Ġsympat":3480,"iced":3481,"ĠSmith":3482,"Ġdisturbing":3483,"ĠDun":3484,"Ġhost":3485,"that":3486,"Ġfavour":3487,"Ġcause":3488,"Ġleaving":3489,"Ġincredible":3490,"After":3491,"Ġbuilding":3492,"ify":3493,"llen":3494,"Ġstate":3495,"Ġmanner":3496,"Ġindust":3497,"ĠHitch":3498,"Ġability":3499,"Ġmatch":3500,"Ġaffect":3501,"estival":3502,"Ġtrack":3503,"Ġfresh":3504,"ottom":3505,"Ġheavy":3506,"ades":3507,"making":3508,"ashing":3509,"Ġstudio":3510,"Ġweek":3511,"Ġultimately":3512,"Ġcritic":3513,"idered":3514,"Ġcomedies":3515,"verse":3516,"Ġcomputer":3517,"Ġshooting":3518,"Ġimpossible":3519,"ĠCharles":3520,"Ġroad":3521,"Ġadventure":3522,"just":3523,"Ġdin":3524,"ĠRed":3525,"Ġchanges":3526,"Ġstandard":3527,"ront":3528,"Ġearth":3529,"Ġloves":3530,"Ġspot":3531,"Ġcold":3532,"Ġpil":3533,"Ġmysterious":3534,"Ġredeem":3535,"mas":3536,"ĠHigh":3537,"Ġconsidering":3538,"ĠPerhaps":3539,"Ġintrigu":3540,"itor":3541,"Ġrevenge":3542,"Ġvamp":3543,"face":3544,"Ġspect":3545,"ĠGold":3546,"ropri":3547,"VER":3548,"ĠDu":3549,"Ġsucceed":3550,"Ġur":3551,"uts":3552,"Ġrace":3553,"Ġcarry":3554,"Ġimages":3555,"Ġtaste":3556,"ĠHenry":3557,"Ġimmediately":3558,"ares":3559,"kin":3560,"Ġconflict":3561,"Ġutterly":3562,"vert":3563,"aining":3564,"ĠMic":3565,"Ġclot":3566,"Ġconsidered":3567,"Ġsix":3568,"ĠAdam":3569,"enny":3570,"Ġcompe":3571,"ĠNor":3572,"Ġmagic":3573,"Ġbought":3574,"Ġlab":3575,"Ġgrap":3576,"Ġteacher":3577,"Ġnatural":3578,"Ġokay":3579,"Ġalive":3580,"Ġamateur":3581,"Ġsexy":3582,"Ġdetective":3583,"ĠSand":3584,"aps":3585,"Ġkills":3586,"Well":3587,"Ġmult":3588,"Ġrepl":3589,"Ġthrown":3590,"ĠHard":3591,"Ġhaun":3592,"Ġindivid":3593,"played":3594,"ented":3595,"Ġstarring":3596,"ĠSec":3597,"ĠCharlie":3598,"Ġuns":3599,"elly":3600,"ĠStill":3601,"Ġgarbage":3602,"Ġdig":3603,"Ġtwists":3604,"Ġemp":3605,"Ġappeal":3606,"Ġhistorical":3607,"Ġgovernment":3608,"ature":3609,"Ġlikely":3610,"Ġmanaged":3611,"rences":3612,"Ġgenerally":3613,"Ġbull":3614,"awn":3615,"mon":3616,"alt":3617,"Ġfat":3618,"Ġfashion":3619,"roll":3620,"ĠLau":3621,"Ġsilent":3622,"oe":3623,"ples":3624,"Ġboyfriend":3625,"Ġprogram":3626,"uster":3627,"Ġmonth":3628,"Ġbrothers":3629,"irth":3630,"Ġlegend":3631,"Ġ`":3632,"Ġaddition":3633,"Ġclimax":3634,"Th":3635,"Ġplus":3636,"ĠThom":3637,"Ġdestroy":3638,"Ġloud":3639,".....":3640,"Ġgod":3641,"ĠStre":3642,"vey":3643,"ĠTr":3644,"ĠBig":3645,"Ġdemon":3646,"Ġwitness":3647,"ondon":3648,"Ġadded":3649,"Ġmilitary":3650,"Ġobsess":3651,"ĠMoore":3652,"ĠCor":3653,"Ġaudiences":3654,"gue":3655,"itude":3656,"aries":3657,"illing":3658,"ĠLet":3659,"Ġneigh":3660,"Ġavailable":3661,"ĠCG":3662,"Ġtrash":3663,"Ġdiscuss":3664,"Ġstreet":3665,"ID":3666,"rad":3667,"ĠBad":3668,"ĠDou":3669,"Ġnowhere":3670,"Ġhappening":3671,"ĠSci":3672,"Ġtone":3673,"ĠSad":3674,"LL":3675,"Ġdrive":3676,"aff":3677,"ĠPark":3678,"iven":3679,"you":3680,"ste":3681,"Ġmakers":3682,"down":3683,"Ġinflu":3684,"Ġliterally":3685,"ĠMat":3686,"ĠWay":3687,"ĠEarth":3688,"Ġterms":3689,"Ġscience":3690,"ennis":3691,"We":3692,"str":3693,"stem":3694,"Ġintern":3695,"mm":3696,"Ġcostumes":3697,"?!":3698,"ĠCo":3699,"Ġprotagon":3700,"Ġauthor":3701,"erm":3702,"Ġboss":3703,"Ġsuppose":3704,"Ġputs":3705,"Ġcinematic":3706,"Ġmarriage":3707,"Ġapproach":3708,"Ġinnocent":3709,"esides":3710,"ivil":3711,"Ġpainful":3712,"Ġdetails":3713,"uit":3714,"Ġdim":3715,"Ġsurprisingly":3716,"Ġindividual":3717,"ĠMcC":3718,"ales":3719,"ĠPol":3720,"ĠYe":3721,"Ġemotions":3722,"Ġdiscover":3723,"Ġsuit":3724,"Ġcommer":3725,"Ġkey":3726,"Ġescap":3727,"Ġdiv":3728,"oking":3729,"Ġloose":3730,"Ġgold":3731,"elling":3732,"Ġsinging":3733,"house":3734,"Ġcuri":3735,"aches":3736,"Ġknowing":3737,"Ġtouching":3738,"IT":3739,"Ġconstantly":3740,"Ġterrific":3741,"ĠAp":3742,"ĠOverall":3743,"Ġcharm":3744,"Be":3745,"Ġflicks":3746,"Ġmach":3747,"Ġsurround":3748,"Ġstunning":3749,"AC":3750,"Ġinit":3751,"Ġ100":3752,"inese":3753,"Ġstuck":3754,"Ġrip":3755,"Ġprep":3756,"Ġbeautifully":3757,"Ġhoping":3758,"Ġlength":3759,"ift":3760,"ĠJason":3761,"Ġremains":3762,"ĠAfric":3763,"ability":3764,"Ġvictims":3765,"ĠTe":3766,"ĠRo":3767,"ĠGo":3768,"ploy":3769,"That":3770,"Ġgag":3771,"ĠAlex":3772,"Ġoffer":3773,"Ġfully":3774,"oned":3775,"ively":3776,"ĠBrother":3777,"Ġgem":3778,"ĠRay":3779,"Ġfreak":3780,"ency":3781,"ĠLew":3782,"ĠBer":3783,"ĠDirector":3784,"ĠEr":3785,"Ġspec":3786,"Ġstudent":3787,"Ġpsycholog":3788,"cra":3789,"Ġobject":3790,"rama":3791,"Ġunbelievable":3792,"ĠHitchcock":3793,"Ġdad":3794,"Ġlovely":3795,"ĠLondon":3796,"Ġtrip":3797,"Ġdrunk":3798,"Ġopportunity":3799,"Ġnames":3800,"asty":3801,"Ġlacks":3802,"Ġemotion":3803,"Ġslowly":3804,"Ġsto":3805,"Ġlikable":3806,"ĠOnly":3807,"Ġimpression":3808,"Ġpresented":3809,"ĠRog":3810,"Ġexception":3811,"night":3812,"xual":3813,"ilities":3814,"ĠRE":3815,"Ġadds":3816,"Ġacts":3817,"ĠJean":3818,"odies":3819,"Ġsystem":3820,"ribe":3821,"Ġhun":3822,"ĠAnother":3823,"Ġintended":3824,"bb":3825,"Ġvirt":3826,"Ġdisappe":3827,"Ġlaughable":3828,"ĠNic":3829,"Ġaspects":3830,"ĠCanad":3831,"mar":3832,"Ġfiction":3833,"ĠMike":3834,"Ġnews":3835,"Ġdescrib":3836,"Ġphotography":3837,"Ġexpectations":3838,"Ġ****":3839,"Ġ13":3840,"entially":3841,"Ġkidn":3842,"budget":3843,"dered":3844,"Ġlover":3845,"Ġdisaster":3846,"Ġremote":3847,"Ġworthy":3848,"Ġdies":3849,"Ġnaked":3850,"ĠSpe":3851,"text":3852,"ology":3853,"ĠThan":3854,"Ġnarrative":3855,"ban":3856,"Ġast":3857,"ander":3858,"Ġprocess":3859,"Ġzombie":3860,"Ġjourney":3861,"Ġmedioc":3862,"He":3863,"Ġcell":3864,"Ġlif":3865,"ands":3866,"Ġserv":3867,"Ġanimated":3868,"Ġinspired":3869,"aus":3870,"hop":3871,"Ġlived":3872,"ĠHell":3873,"nat":3874,"ĠSee":3875,"Ġresc":3876,"Ġdisappointing":3877,"Ġpictures":3878,"Ġscenery":3879,"ĠSteve":3880,"Ġdeveloped":3881,"Ġcharming":3882,"Ġcontr":3883,"Ġbehav":3884,"ĠMel":3885,"ĠWilliams":3886,"ĠMore":3887,"ĠNat":3888,"Ġstands":3889,"Ġpassion":3890,"ĠST":3891,"ĠLo":3892,"Ġfeelings":3893,"Ġabsurd":3894,"Ġallowed":3895,"Ġfolks":3896,"Ġburn":3897,"Ġpieces":3898,"Ġsomewhere":3899,"Ġrecommended":3900,"Ġmoral":3901,"Ġoffe":3902,"ĠBilly":3903,"oph":3904,"Ġamb":3905,"Ġdecis":3906,"Ġdisappointment":3907,"Ġsitting":3908,"ĠWhere":3909,"ĠDay":3910,"Ġindustry":3911,"ta":3912,"Ġfright":3913,"ĠBel":3914,"ĠJane":3915,"ĠChinese":3916,"pendent":3917,"Ġoutstanding":3918,"Ġ18":3919,"Ġcentury":3920,"IG":3921,"To":3922,"iens":3923,"Ġdread":3924,"opher":3925,"ĠFar":3926,"Ġproducer":3927,"Ġwalking":3928,"arant":3929,"Ġfaces":3930,"Ġrelationships":3931,"Ġpsych":3932,"Ġdate":3933,"ĠCr":3934,"Ġunus":3935,"Ġmistake":3936,"Ġfood":3937,"Ġmouth":3938,"ĠBecause":3939,"Ġtired":3940,"Ġfilming":3941,"Ġelement":3942,"Ġequally":3943,"Ġdisgust":3944,"ka":3945,"iles":3946,"Ġdefe":3947,"Ġartist":3948,"Ġfalling":3949,"field":3950,"Ġthemes":3951,"Ġfinding":3952,"Ġactresses":3953,"Ġnegative":3954,"ita":3955,"aint":3956,"Ġaffair":3957,"Ġcommercial":3958,"Americ":3959,"table":3960,"icated":3961,"owing":3962,"ĠDavis":3963,"Ġserial":3964,"Ġfinish":3965,"Ġinclude":3966,"Ġfascinating":3967,"eper":3968,"ĠHam":3969,"Ġprim":3970,"gly":3971,"pro":3972,"Ġseemingly":3973,"ĠAmericans":3974,"ĠPeople":3975,"Ġcas":3976,"ĠSch":3977,"Ġexcuse":3978,"ĠCraw":3979,"ses":3980,"ĠTer":3981,"Ġintense":3982,"ugg":3983,"ĠGar":3984,"Ġconfusing":3985,"ĠHall":3986,"Ġconvers":3987,"Ġmillion":3988,"ĠNaz":3989,"Ġqual":3990,"Ġbecoming":3991,"Ġsoldiers":3992,"rem":3993,"ĠYet":3994,"ĠHoward":3995,"Ġconfused":3996,"ĠStep":3997,"Ġapartment":3998,"cula":3999,"Ġdelivers":4000,"Now":4001,"heart":4002,"Ġhosp":4003,"Ġimpressed":4004,"Some":4005,"kins":4006,"onna":4007,"aly":4008,"ĠSure":4009,"Ġrout":4010,"sing":4011,"see":4012,"aud":4013,"Ġquiet":4014,"IC":4015,"Ġhighlight":4016,"First":4017,"owell":4018,"agers":4019,"Ġord":4020,"Ġgiant":4021,"Ġmagn":4022,"Ġener":4023,"Ġstudents":4024,"Un":4025,"Ġfault":4026,"Ġgames":4027,"Ġhonestly":4028,"icious":4029,"sey":4030,"Ġpaid":4031,"ached":4032,"With":4033,"Ġweap":4034,"Ġdeg":4035,"Ġmerely":4036,"ĠParis":4037,"Ġmulti":4038,"ĠIr":4039,"ĠWestern":4040,"ĠRy":4041,"ipp":4042,"Ġmart":4043,"omen":4044,"Ġsoft":4045,"Ġoffers":4046,"writer":4047,"ĠCrawford":4048,"wr":4049,"Ġgri":4050,"Ġholes":4051,"Ġlaughed":4052,"ĠCGI":4053,"Ġden":4054,"ĠMag":4055,"Ġchase":4056,"ĠBur":4057,"Ġthank":4058,"Ġagent":4059,"Ġaccom":4060,"uous":4061,"Ġstation":4062,"ĠBest":4063,"ĠHel":4064,"ĠRock":4065,"Ġhasn":4066,"Ġfaith":4067,"Ġflaws":4068,"Ġanymore":4069,"ĠKevin":4070,"Ġmelod":4071,"Ġaccur":4072,"ĠTwo":4073,"ĠSl":4074,"ĠCal":4075,"agger":4076,"Ġshouldn":4077,"Ġshare":4078,"Ġoppos":4079,"Ġcomparis":4080,"Ġ40":4081,"Ġdancing":4082,"Ġfort":4083,"ules":4084,"OV":4085,"Ġunknown":4086,"ledge":4087,"ops":4088,"Ġeverybody":4089,"Ġexplos":4090,"ĠThough":4091,"orgeous":4092,"Ġcurrent":4093,"sed":4094,"uk":4095,"Ġheld":4096,"Ġhig":4097,"ĠBoth":4098,"orts":4099,"Ġedge":4100,"Ġcorrect":4101,"Ġbreath":4102,"ĠJew":4103,"Ġcontains":4104,"Ġpersonality":4105,"ddie":4106,"Ġdrag":4107,"ĠTheir":4108,"Ġprovide":4109,"Ġforgotten":4110,"Ġcele":4111,"Ġwondering":4112,"ja":4113,"Ġahead":4114,"itions":4115,"Ġtragic":4116,"Ġsurprising":4117,"ĠNothing":4118,"requ":4119,"stal":4120,"ĠStan":4121,"board":4122,"ooper":4123,"aine":4124,"apped":4125,"Ġprotect":4126,"ivers":4127,"omething":4128,"John":4129,"Ġdrawn":4130,"Ġtradition":4131,"inally":4132,"orter":4133,"Ġmob":4134,"pected":4135,"Ġdifference":4136,"bad":4137,"ĠMus":4138,"Ġsuic":4139,"ĠEast":4140,"Ġslap":4141,"Ġimpact":4142,"mbol":4143,"Ġreminded":4144,"Ġadaptation":4145,"At":4146,"lev":4147,"Ġthin":4148,"Ġprovides":4149,"Ġirrit":4150,"Ġmut":4151,"Ġcontent":4152,"Ġtraged":4153,"Ġ60":4154,"Ġhospital":4155,"Ġjoy":4156,"Ġheroes":4157,"Ġspectac":4158,"gment":4159,"Ġnumb":4160,"ustr":4161,"Ġrented":4162,"Ġangry":4163,"Oh":4164,"Ġdouble":4165,"Ġinformation":4166,"ĠLind":4167,"sell":4168,"oop":4169,"pret":4170,"win":4171,"Ġhide":4172,"ĠWest":4173,"ĠDid":4174,"Ġwilling":4175,"Ġmurders":4176,"ET":4177,"ishes":4178,"Ġbene":4179,"Ġmainly":4180,"Ġboard":4181,"Ch":4182,"ators":4183,"ĠMark":4184,"Ġunw":4185,"Ġcomedic":4186,"Ġencoun":4187,"ĠJeff":4188,"ique":4189,"Ġnasty":4190,"Ġclean":4191,"Ġcontinue":4192,".'":4193,"eal":4194,"Ġcrow":4195,"Ġpra":4196,"ica":4197,"Ġunne":4198,"Ġcoun":4199,"zen":4200,"oted":4201,"anda":4202,"ĠVery":4203,"Ġattractive":4204,"Ġunusual":4205,"ament":4206,"illed":4207,"Ġarea":4208,"Ġexplan":4209,"ĠWil":4210,"Ġblame":4211,"resses":4212,"Ġturning":4213,"Ġputting":4214,"Ġsuperior":4215,"II":4216,"Ġgorgeous":4217,"Ġmember":4218,"ium":4219,"ĠShow":4220,"ĠSouth":4221,"Ġactions":4222,"Ġcreature":4223,"raid":4224,"Ġyouth":4225,"Ġfell":4226,"ĠChristmas":4227,"While":4228,"ĠBond":4229,"Ġunreal":4230,"Ġmission":4231,"Ġadults":4232,"Ġfunniest":4233,"Ġeat":4234,"ĠGirl":4235,"Ġlighting":4236,"Ġcompelling":4237,"good":4238,"Ġbright":4239,"ĠWW":4240,"Ġround":4241,"Ġnobody":4242,"ĠSil":4243,"ifer":4244,"Ġforever":4245,"Ġsour":4246,"anish":4247,"Ġnons":4248,"Ġmarket":4249,"Ġzombies":4250,"Ġbi":4251,"ĠSn":4252,"ĠChristian":4253,"Ġcommentary":4254,"ropriate":4255,"ĠSteven":4256,"Ġmediocre":4257,"Ġaside":4258,"hern":4259,"Ġwearing":4260,"abl":4261,"Ġknock":4262,"Ġformula":4263,"Ġcritics":4264,"TV":4265,"do":4266,"father":4267,"Ġtour":4268,"Ġeight":4269,"Ġunderst":4270,"Ġappeared":4271,"Ġcourt":4272,"Ġlocation":4273,"Ġgangster":4274,"ĠChris":4275,"Ġready":4276,"Ġheads":4277,"Ġintriguing":4278,"ĠTony":4279,"Ġonto":4280,"Ġfellow":4281,"Ġconsist":4282,"Ġsupposedly":4283,"Ġaccompl":4284,"aire":4285,"under":4286,"Ġsight":4287,"gged":4288,"cis":4289,"gar":4290,"ĠMs":4291,"Ġblond":4292,"Ġaware":4293,"Ġskin":4294,"Ġresemb":4295,"ĠHouse":4296,"Ġemploy":4297,"ĠclichÃ©s":4298,"iro":4299,"Ġwise":4300,"Ġphotograp":4301,"De":4302,"ffe":4303,"lor":4304,"Ġspl":4305,"Ġbase":4306,"Ġcivil":4307,"Ġder":4308,"Ġpossess":4309,"AY":4310,"Ġgoof":4311,"Ġdescribe":4312,"Ġanswer":4313,"Bl":4314,"gent":4315,"ĠTim":4316,"ĠPres":4317,"Ġborn":4318,"Ġasked":4319,"inct":4320,"Ġsac":4321,"Ġoh":4322,"ĠRom":4323,"Ġlose":4324,"Ġimagination":4325,"Ġcentral":4326,"Ġbelong":4327,"Ġfavourite":4328,"Ġmoved":4329,"ĠOl":4330,"Ġhelps":4331,"Ġfights":4332,"No":4333,"esb":4334,"otes":4335,"ĠPal":4336,"tend":4337,"Ġbal":4338,"Ġreach":4339,"Ġthanks":4340,"Ġintroduced":4341,"Ġcollection":4342,"glas":4343,"AM":4344,"miss":4345,"Ġplane":4346,"entional":4347,"year":4348,".,":4349,"Ġpartner":4350,"Ġachieve":4351,"ĠRussian":4352,"Ġbur":4353,"Ġhated":4354,"Ġspeaking":4355,"Ġloss":4356,"Ġprostit":4357,"Ġaccount":4358,"ilos":4359,"ĠDennis":4360,"Ġshocking":4361,"ĠAnyway":4362,"Overall":4363,"iac":4364,"ison":4365,"Ġthus":4366,"Ġ12":4367,"Ġimage":4368,"Ġempt":4369,"Ġsymbol":4370,"Ġteenage":4371,"Ġled":4372,"Ġhook":4373,"Ġtrust":4374,"Ġleader":4375,"stein":4376,"hony":4377,"hell":4378,"inn":4379,"ena":4380,"Ġmotion":4381,"ĠIS":4382,"rors":4383,"Ġaim":4384,"ĠBrown":4385,"Ġdeb":4386,"Ġnecessary":4387,"Ġvillains":4388,"ĠLuc":4389,"urally":4390,"Ġsell":4391,"oons":4392,"rend":4393,"Ġdu":4394,"ueen":4395,"Ġwanting":4396,"Ġperform":4397,"Ġrelative":4398,"Ġpen":4399,"IE":4400,"ios":4401,"lock":4402,"Ġwarm":4403,"Ġfollowed":4404,"ĠEddie":4405,"ĠLewis":4406,"oses":4407,"Ġcreative":4408,"asure":4409,"rog":4410,"Ġmartial":4411,"Ġimpl":4412,"Ġseconds":4413,"ĠDracula":4414,"ville":4415,"wart":4416,"ĠWild":4417,"ĠYoung":4418,"ĠMany":4419,"part":4420,"ÂĹ":4421,"ĠToo":4422,"Ġprefer":4423,"erk":4424,"ario":4425,"urity":4426,"ĠPart":4427,"Ġjustice":4428,"Ġinsight":4429,"Ġwooden":4430,"Ġunexpected":4431,"cho":4432,"gn":4433,"Ġbank":4434,"acy":4435,"Ġblind":4436,"Ġdreams":4437,"Ġlatter":4438,"ĠMatt":4439,"ĠNick":4440,"Ġnoir":4441,"arded":4442,"ode":4443,"Ġsubst":4444,"Ġstandards":4445,"ĠSuper":4446,"anity":4447,"Ġconfront":4448,"Ġunderstanding":4449,"Ġpriv":4450,"Ġbroad":4451,"Ġphysical":4452,"ech":4453,"mi":4454,"Ġpair":4455,"anced":4456,"Ġugly":4457,"ĠGreen":4458,"Ġhelped":4459,"Ġindependent":4460,"Ġintelligence":4461,"arget":4462,"ĠMal":4463,"Ġaliens":4464,"Ġproves":4465,"Ġwatchable":4466,"Ġissue":4467,"Ġrepeated":4468,"Ġscientist":4469,"Any":4470,"Ġdying":4471,"Ġdubb":4472,"Ġpicked":4473,"Ġbrutal":4474,"ek":4475,"Ġstink":4476,"Ġhyp":4477,"abor":4478,"ictor":4479,"Ġdesert":4480,"azy":4481,"ĠAustral":4482,"Ġhint":4483,"plot":4484,"Ġrealized":4485,"Ġmemory":4486,"phy":4487,"has":4488,"ĠApp":4489,"irk":4490,"empor":4491,"asts":4492,"Ġprofessional":4493,"Ġtrailer":4494,"Ġtragedy":4495,"Ġcal":4496,"asm":4497,"orted":4498,"Ġtwice":4499,"ache":4500,"ĠDeath":4501,"Ġcraft":4502,"kward":4503,"Ġbegan":4504,"oughly":4505,"elle":4506,"Ġmotiv":4507,"Ġmixed":4508,"Ġbottom":4509,"ushed":4510,"soci":4511,"oved":4512,"stick":4513,"pective":4514,"Ġguns":4515,"Ġreturns":4516,"Ġafraid":4517,"hod":4518,"Ġhits":4519,"aven":4520,"chan":4521,"Ġbits":4522,"Ġclothes":4523,"Ġstock":4524,"aded":4525,"Ġasks":4526,"ĠEs":4527,"soever":4528,"Ġchildhood":4529,"Ġepic":4530,"Ġdistract":4531,"Ġ1970":4532,"Ġresponsible":4533,"life":4534,"Ġtight":4535,"Ġham":4536,"etic":4537,"ĠSus":4538,"ĠRus":4539,"........":4540,"Ġincludes":4541,"Ġforeign":4542,"althy":4543,"Ġver":4544,"cture":4545,"Ġris":4546,"Ġchannel":4547,"Ġradio":4548,"CH":4549,"anic":4550,"Ġrelie":4551,"ĠHay":4552,"Ġredeeming":4553,"ĠBrothers":4554,"ĠSar":4555,"ĠCat":4556,"Ġwhatsoever":4557,"Ġarts":4558,"ovies":4559,"Ġbloody":4560,"ĠDaniel":4561,"ĠDark":4562,"Ġshad":4563,"Ġmurdered":4564,"undred":4565,"Ġdamn":4566,"ĠBet":4567,"Ġtwenty":4568,"ensional":4569,"Ġcrowd":4570,"Ġplanet":4571,"Ġbirth":4572,"ano":4573,"ady":4574,"ĠLittle":4575,"osh":4576,"Ġarmy":4577,"ĠDean":4578,"ĠAnn":4579,"Ġpilot":4580,"ivity":4581,"Ġlets":4582,"Ġvehic":4583,"she":4584,"Ġwide":4585,"Ġpaper":4586,"ĠON":4587,"Ġenv":4588,"anned":4589,"Ġfilmmaker":4590,"natural":4591,"ĠBo":4592,"cking":4593,"ĠWars":4594,"Ġvir":4595,"Ġfinished":4596,"aust":4597,"Ġcars":4598,"Ġdebut":4599,"ĠNever":4600,"teen":4601,"Ġrarely":4602,"Ġincre":4603,"Ġsurely":4604,"oring":4605,"Ġsty":4606,"ĠBas":4607,"ĠDel":4608,"ĠLyn":4609,"tered":4610,"Ġtears":4611,"Ġawkward":4612,"Ġhorse":4613,"Ġrac":4614,"Ġconstant":4615,"Ġted":4616,"Ġwitty":4617,"Ġfool":4618,"ĠIN":4619,"entious":4620,"Ġrubb":4621,"Ġfloor":4622,"Ġtend":4623,"they":4624,"Ġholds":4625,"ĠDouglas":4626,"American":4627,"roc":4628,"Ġaband":4629,"Ġknowledge":4630,"ĠTre":4631,"alled":4632,"Ġplayers":4633,"Ġnicely":4634,"ancy":4635,"Ġthats":4636,"add":4637,"ĠVal":4638,"Ġhotel":4639,"Ġsubtit":4640,"ĠDespite":4641,"Ġla":4642,"Ġhurt":4643,"Ġblock":4644,"Ġphone":4645,"Ġconcerned":4646,"Ġsepar":4647,"Ġanywhere":4648,"azz":4649,"Ġdeterm":4650,"Ġstreng":4651,"Ġlimited":4652,"Ġmonths":4653,"Ġboo":4654,"ading":4655,"Ġcommunity":4656,"ĠWayne":4657,"Ġ?":4658,"Ġpacing":4659,"Ġexplained":4660,"Ġphilos":4661,"Ġstruggle":4662,"ĠRos":4663,"Ġprove":4664,"ĠAND":4665,"rical":4666,"herent":4667,"Ġsmile":4668,"osexual":4669,"Ġstreets":4670,"Ġexplanation":4671,"itz":4672,"Ġpark":4673,"ulation":4674,"Ġpersonally":4675,"Ġlacking":4676,"Ġdeserve":4677,"Ġlesb":4678,"Ġplots":4679,"Ġcomparison":4680,"star":4681,"fortable":4682,"!).":4683,"UT":4684,"Ġowner":4685,"Ġinsane":4686,"Ġskills":4687,"BC":4688,"ruction":4689,"ĠEverything":4690,"film":4691,"gen":4692,"ores":4693,"ser":4694,"ĠJes":4695,"Ġuncom":4696,"Ġsadly":4697,"ĠThomas":4698,"Ġmachine":4699,"lear":4700,"Ġreact":4701,"Ġforces":4702,"bered":4703,"ĠOnce":4704,"Ġmiser":4705,"Ġsword":4706,"ĠMurphy":4707,"Ġtorture":4708,"leep":4709,"Ġcontext":4710,"Ġclub":4711,"ĠChristopher":4712,"ĠMax":4713,"Ġdrugs":4714,"iser":4715,"Ġelect":4716,"Ġdepart":4717,"Ġsurvive":4718,"Ġhundred":4719,"ĠMen":4720,"Ġmarry":4721,"break":4722,"hold":4723,"ĠBog":4724,"Ġvision":4725,"Ġreligious":4726,"bur":4727,"Ġban":4728,"Ġthor":4729,"ĠBarb":4730,"Ġvol":4731,"Ġdeeply":4732,"mark":4733,"Ġner":4734,"Ġcircum":4735,"ĠHolmes":4736,"Re":4737,"Rob":4738,"urch":4739,"Ġsucks":4740,"Ġremain":4741,"Ġcalls":4742,"Ġunnecessary":4743,"ĠMrs":4744,"ĠEngland":4745,"Ġcriminal":4746,"Ġenergy":4747,"hered":4748,"ola":4749,"Ġgrat":4750,"Ġsuicide":4751,"ĠJerry":4752,"ĠStone":4753,"Ġresults":4754,"Ġempty":4755,"ousy":4756,"Ġparody":4757,"Ġsignific":4758,"Ġvampire":4759,"Ġlies":4760,"ĠLast":4761,"Ġlovers":4762,"Ġoverly":4763,"Ġsurreal":4764,"Ġnumbers":4765,"terest":4766,"Ġdriving":4767,"Ġefforts":4768,"Ġsal":4769,"Ġapparent":4770,"especially":4771,"ĠRod":4772,"erer":4773,"POILERS":4774,"Ġtarget":4775,"ĠPlease":4776,"Ġlocations":4777,"Ġaccurate":4778,"het":4779,"Ġge":4780,"ĠFord":4781,"Ġcops":4782,"Ġbelow":4783,"Ġcard":4784,"iful":4785,"iance":4786,"ĠVH":4787,"Ġopens":4788,"ĠJackson":4789,"ĠPhil":4790,"Ġrepresent":4791,"ga":4792,"Ġopt":4793,"Ġfield":4794,"Ġveter":4795,"Ġearn":4796,"ĠLes":4797,"They":4798,"ĠVictor":4799,"Ġrefres":4800,"Ġofficer":4801,"oks":4802,"vit":4803,"esh":4804,"ĠJud":4805,"Ġteenagers":4806,"Ġdesperate":4807,"Ġ!":4808,"Ġwed":4809,"ĠCle":4810,"Ġscrew":4811,"ĠFe":4812,"Ġcreating":4813,"Ġ1980":4814,"agney":4815,"Ġproceed":4816,"top":4817,"Ġmild":4818,"ching":4819,"ĠBat":4820,"Ġbigger":4821,"Ġmine":4822,"Ġassoci":4823,"Ġdeserved":4824,"ĠWhite":4825,"Ġcontrived":4826,"fl":4827,"Ġcorrupt":4828,"Ġsequels":4829,"Ġnumerous":4830,"Ġ1950":4831,"Ġrevealed":4832,"aving":4833,"ĠJan":4834,"aret":4835,"Ġlearned":4836,"uct":4837,"Ġscared":4838,"ateg":4839,"thur":4840,"Ġpleasure":4841,"rat":4842,"Ġhidden":4843,"Ġbland":4844,"Ġobsc":4845,"Ġshallow":4846,"Ġvisit":4847,"ugs":4848,"Ġtape":4849,"Ġlay":4850,"ĠJr":4851,"Ġinstance":4852,"ennifer":4853,"Ġcontrast":4854,"yes":4855,"rate":4856,"Ġcharis":4857,"Ġorgan":4858,"Ġrated":4859,"Ġtrib":4860,"Ġeduc":4861,"Ġhopes":4862,"Ġcircumst":4863,"Ġrefreshing":4864,"hent":4865,"ĠCapt":4866,"ĠWas":4867,"Ġvillage":4868,"ĠGener":4869,"Ġrealism":4870,"there":4871,"Ġkeeping":4872,"Ġgeneration":4873,"Ġassist":4874,"riday":4875,"director":4876,"ĠTurn":4877,"iron":4878,"Ġcaptured":4879,"arc":4880,"sec":4881,"ĠAv":4882,"ĠBarry":4883,"ĠWat":4884,"ĠViet":4885,"Ġuncon":4886,"Ġdangerous":4887,"ĠStephen":4888,"Ġchick":4889,"ording":4890,"Ġhumanity":4891,"Ġbehavior":4892,"Ġrubbish":4893,"Ġgas":4894,"ression":4895,"yal":4896,"Ġpress":4897,"Ġanime":4898,"ĠMer":4899,"ued":4900,"Ġwond":4901,"Ġgonna":4902,"Ġmanage":4903,"Ġframe":4904,"Ġcow":4905,"Ġtoward":4906,"anna":4907,"ilst":4908,"Ġhumans":4909,"Ġbelief":4910,"Ġtrick":4911,"Ġincluded":4912,"ĠSpanish":4913,"Ġdepressing":4914,"rie":4915,"Ġsafe":4916,"Ġcameo":4917,"ĠMexican":4918,"Ġneighbor":4919,"Ġvote":4920,"Ġdisplay":4921,"ĠAnderson":4922,"wolf":4923,"Ġsides":4924,"Ġdated":4925,"Ġfrank":4926,"ĠRon":4927,"Ġunint":4928,"Ġloving":4929,"Ġgotten":4930,"Ġrelate":4931,"Ġbreaks":4932,"Ġstrength":4933,"200":4934,"Ġna":4935,"Ġthous":4936,"ember":4937,"ĠLa":4938,"Ġtreated":4939,"Ġjudge":4940,"hero":4941,"Ġexperien":4942,"holic":4943,"Ġtechnical":4944,"Ġblue":4945,"Ġresol":4946,"Ġregret":4947,"ĠWoody":4948,"Ġmental":4949,"ĠVHS":4950,"oom":4951,"rous":4952,"wo":4953,"ĠTod":4954,"ĠMa":4955,"Ġfinale":4956,"Ġanimal":4957,"Ġregular":4958,"gra":4959,"Ġtur":4960,"Ġbodies":4961,"Ġking":4962,"ums":4963,"Ġsheer":4964,"Ġspeech":4965,"ĠBlood":4966,"Ġidentity":4967,"Ġwindow":4968,"ĠEuropean":4969,"cise":4970,"Ġflying":4971,"ĠLaw":4972,"Although":4973,"Ġperspective":4974,"bell":4975,"ĠCagney":4976,"ulf":4977,"Ġens":4978,"ĠChuck":4979,"Ġmemories":4980,"ĠDam":4981,"ounds":4982,"Ġfacts":4983,"Ġevidence":4984,"Ġengaging":4985,"sion":4986,"Ġtick":4987,"oyd":4988,"away":4989,"Ġconvin":4990,"yr":4991,"Ġmount":4992,"Ġaltern":4993,"ruct":4994,"ometimes":4995,"Ġboat":4996,"Ġbroken":4997,"ĠRyan":4998,"Ġstret":4999,"ĠDick":5000,"Ġguest":5001,"Ġdesp":5002,"Ġcompare":5003,"Ġcares":5004,"ĠPatrick":5005,"Ġing":5006,"Ġnet":5007,"although":5008,"50":5009,"Ġfrequ":5010,"ĠBE":5011,"core":5012,"Ġtack":5013,"aybe":5014,"Ġtherefore":5015,"pless":5016,"ĠKelly":5017,"Ġtalents":5018,"Ġdiscovers":5019,"run":5020,"ĠHorror":5021,"ĠWin":5022,"outs":5023,"ails":5024,"Ġlevels":5025,"ago":5026,"ĠRose":5027,"Ġinvolves":5028,"Ġfeaturing":5029,"ĠFrancis":5030,"imental":5031,"BI":5032,"ques":5033,"incent":5034,"Ġstereotypes":5035,"Ġprotagonist":5036,"Ġrescue":5037,"Ġopposite":5038,"Ġhigher":5039,"ners":5040,"Ġbot":5041,"lli":5042,"ĠBab":5043,"Ġhadn":5044,"Ġfriendship":5045,"Ġmeeting":5046,"Ġgrowing":5047,"Ġunrealistic":5048,"mo":5049,"Ġsed":5050,"Ġcable":5051,"Ġcab":5052,"Ġgory":5053,"ĠBern":5054,"uddy":5055,"Ġcapable":5056,"Ġpsychological":5057,"ĠRussell":5058,"spe":5059,"ĠWhich":5060,"cient":5061,"???":5062,"lynn":5063,"entions":5064,"Ġanimals":5065,"Ġpulled":5066,"hentic":5067,"irm":5068,"Ġplayer":5069,"acting":5070,"ibal":5071,"Ġwonderfully":5072,"Ġloses":5073,"Ġmagnific":5074,"isters":5075,"tering":5076,"ushing":5077,"ĠLi":5078,"Ġattitude":5079,"theless":5080,"Ġflashbacks":5081,"col":5082,"reck":5083,"lled":5084,"Ġsea":5085,"ĠSan":5086,"Ġenth":5087,"Ġrecall":5088,"Ġgrace":5089,"Ġreviewers":5090,"ĠOld":5091,"Ġexploitation":5092,"oh":5093,"Ġpowers":5094,"Ġseat":5095,"ĠBar":5096,"ĠCent":5097,"ĠFox":5098,"ĠKhan":5099,"rue":5100,"achel":5101,"Ġrape":5102,"Ġdecade":5103,"ĠAlan":5104,"Ġtreatment":5105,"Ġarm":5106,"ĠSean":5107,"Ġreminds":5108,"ademy":5109,"Ġnoticed":5110,"Ġstudy":5111,"Ġreceived":5112,"Ġnonsense":5113,"mare":5114,"Ġsun":5115,"Ġfame":5116,"histic":5117,"ĠJon":5118,"Ġartistic":5119,"Ġinterpret":5120,"Ġstanding":5121,"screen":5122,"Ġhumorous":5123,"Ġadvice":5124,"Ġdealing":5125,"Ġmedia":5126,"reedom":5127,"Ġmodel":5128,"Ġremarkable":5129,"Ġreferences":5130,"atory":5131,"arden":5132,"acre":5133,"Ġrange":5134,"Ġrelief":5135,"OK":5136,"cies":5137,"Ġfif":5138,"ads":5139,"ĠWalk":5140,"ĠDog":5141,"Ġjunk":5142,"ĠLife":5143,"Ġsomebody":5144,"Ġunfold":5145,"looking":5146,"Ġopera":5147,"Ġsin":5148,"Ġfate":5149,"Ġobl":5150,"Ġthoroughly":5151,"arian":5152,"Ġgent":5153,"ĠMean":5154,"ante":5155,"Ġminim":5156,"Ġpriest":5157,"ĠAc":5158,"ulous":5159,"Ġsuck":5160,"Ġmanip":5161,"Ġfab":5162,"Ġstarting":5163,"Ġprint":5164,"Ġproud":5165,"Ġchore":5166,"Ġhyster":5167,"craft":5168,"Even":5169,"Ġemer":5170,"ĠDE":5171,"umps":5172,"Ġanybody":5173,"Ġteens":5174,"Ġmajority":5175,"ĠAnthony":5176,"Ġgags":5177,"Ġfund":5178,"Ġcateg":5179,"ĠThose":5180,"ĠTime":5181,"ĠDor":5182,"Ġgraphic":5183,"Why":5184,"ĠIre":5185,"Ġterribly":5186,"Ġwoods":5187,"OL":5188,"eed":5189,"eman":5190,"Ġvac":5191,"Ġcontinues":5192,"Ġcruel":5193,"RA":5194,"Ġseven":5195,"ĠWal":5196,"Ġspoof":5197,"Ġpassed":5198,"Ġvul":5199,"Ġclassics":5200,"Ġunfunny":5201,"Ġ/":5202,"ĠIm":5203,"Ġheroine":5204,"ĠJulie":5205,"aton":5206,"oting":5207,"ĠStory":5208,"ordon":5209,"Ġedited":5210,"Ġportrays":5211,"Ġultimate":5212,"However":5213,"Ġcounter":5214,"bing":5215,"ama":5216,"ĠMass":5217,"ĠColl":5218,"anted":5219,"luding":5220,"Ġmarvel":5221,"Ġcartoons":5222,"Ġresearch":5223,"Ġfly":5224,"ether":5225,"Ġsoap":5226,"Ġsurviv":5227,"bed":5228,"nox":5229,"Ġdeals":5230,"abeth":5231,"Ġpretentious":5232,"Yes":5233,"ped":5234,"some":5235,"Ġpet":5236,"Ġgross":5237,"umm":5238,"ivered":5239,"Ġmini":5240,"Ġlisten":5241,"Ġexecuted":5242,"Ġenviron":5243,");":5244,"inis":5245,"ĠTex":5246,"imate":5247,"ĠSun":5248,"outhern":5249,"Ġsatire":5250,"Ġtransl":5251,"Ġsuffering":5252,"ĠSecond":5253,"Ġslapstick":5254,"Ġtun":5255,"ĠKong":5256,"Ġfinest":5257,"Ġdecision":5258,"Ġdreadful":5259,"\"),":5260,"ĠSher":5261,"ĠFer":5262,"ours":5263,"Ġspeed":5264,"Ġtroub":5265,"Ġfailure":5266,"Ġbear":5267,"ĠSince":5268,"Ġchallen":5269,"ĠFestival":5270,"Ġdisp":5271,"Ġtransp":5272,"Ġcombination":5273,"Ġordinary":5274,"mble":5275,"istent":5276,"Ġcrappy":5277,"Ġremembered":5278,"Ġmurderer":5279,"aylor":5280,"Ġhur":5281,"Ġfeet":5282,"ogy":5283,"Ġfamil":5284,"Ġtalks":5285,"Ġunconv":5286,"uz":5287,"Ġfal":5288,"lder":5289,"Ġhall":5290,"iforn":5291,"Ġpeace":5292,"Ġoriginally":5293,"Ġkinda":5294,"Ġdiscovered":5295,"Ġgenuinely":5296,"Ġcircumstances":5297,"SE":5298,"Ġbag":5299,"ĠCamp":5300,"Ġproved":5301,"Ġunable":5302,"Ġblow":5303,"Ġtypes":5304,"ĠEveryone":5305,"Ġinept":5306,"Ġtedious":5307,"Ġtor":5308,"stream":5309,"ribut":5310,"ĠFlynn":5311,"Ġring":5312,"iano":5313,"ĠComm":5314,"telling":5315,"Ġredu":5316,"Ġaward":5317,"Ġbuff":5318,"Ġmaint":5319,"Ġwinning":5320,"Sp":5321,"Ġdelivered":5322,"ĠFrance":5323,"Sc":5324,"nam":5325,"ashed":5326,"Ġgru":5327,"ĠCost":5328,"ĠRing":5329,"ĠJennifer":5330,"Ġunderrated":5331,"Ġmonsters":5332,"ĠArthur":5333,"fin":5334,"ya":5335,"Ġsite":5336,"aph":5337,"Ġincomp":5338,"ĠPrince":5339,"rifying":5340,"don":5341,"Ġtill":5342,"Ġsaved":5343,"ĠAsian":5344,"Ġexecution":5345,"ĠStreet":5346,"ĠSE":5347,"Ġdesire":5348,"Ġhomosexual":5349,"ominated":5350,"rim":5351,"Ġinex":5352,"iger":5353,"tended":5354,"ĠJohnny":5355,"ĠSpace":5356,"197":5357,"ynam":5358,"Ġsteal":5359,"Ġconnect":5360,"Ġauthentic":5361,"Ġsympathetic":5362,"Ġspectacular":5363,"point":5364,"isa":5365,"ora":5366,"Ġdress":5367,"ĠDO":5368,"ĠOut":5369,"Ġprinc":5370,"Ġgrade":5371,"Ġteenager":5372,"Ġtheaters":5373,"Ġcyn":5374,"ĠIT":5375,"ĠLong":5376,"ĠJose":5377,"Ġassass":5378,"Ġhandsome":5379,"Ġsummer":5380,"Ġ1930":5381,"Ġsubtitles":5382,"hal":5383,"Ġsend":5384,"ĠCam":5385,"ĠPar":5386,"ĠRen":5387,"Ġteach":5388,"Ġthoughts":5389,"Ġconnection":5390,"Ġvirtually":5391,"Ġgratuit":5392,"Ġlone":5393,"ummy":5394,"Ġexpert":5395,"Ġweeks":5396,"Ġtheatre":5397,"Ġvisuals":5398,"Ġsatisfying":5399,"ĠCaliforn":5400,"levant":5401,"Ġcash":5402,"omed":5403,"ĠDen":5404,"Ġsole":5405,"Ġsaving":5406,"ighter":5407,"ĠRoger":5408,"Ġdescribed":5409,"ashes":5410,"Ġnin":5411,"iling":5412,"range":5413,"entionally":5414,"Ġoccasionally":5415,"Ġcelebr":5416,"ups":5417,"Ġpath":5418,"ids":5419,"ĠGene":5420,"ĠGordon":5421,"ĠVer":5422,"Ġbrilliantly":5423,"Just":5424,"ĠAdd":5425,"ĠLA":5426,"ĠKarl":5427,"Ġadvert":5428,"Ġasking":5429,"ĠHo":5430,"aker":5431,"ĠGary":5432,"Ġcann":5433,"acc":5434,"Ġhorribly":5435,"fortunate":5436,"ĠUSA":5437,"mond":5438,"Ġgrew":5439,"Ġeating":5440,"Ġforth":5441,"olen":5442,"Ġskill":5443,"Ġvehicle":5444,"hem":5445,"Ġju":5446,"Ġkiss":5447,"olph":5448,"ĠNO":5449,"Ġ16":5450,"plin":5451,"Fi":5452,"Let":5453,"Ġsake":5454,"ĠMin":5455,"Ġchoose":5456,"Ġdinner":5457,"ĠNazi":5458,"Ġbat":5459,"ĠKore":5460,"Ġpromise":5461,"Ġallows":5462,"Ġlesbian":5463,"Ġreaction":5464,"urse":5465,"usive":5466,"ĠPo":5467,"Ġnecess":5468,"aws":5469,"Ġirritating":5470,"loyd":5471,"Ġgreen":5472,"ication":5473,"Ġpainfully":5474,"Ġreflect":5475,"ĠPlus":5476,"ILL":5477,"ĠAfrican":5478,"ausible":5479,"tle":5480,"Ġbre":5481,"orious":5482,"ĠSho":5483,"ĠCount":5484,"ĠVincent":5485,"Ġbuilt":5486,"Ġemotionally":5487,"Ġcuts":5488,"ĠIndia":5489,"IGH":5490,"UN":5491,"ona":5492,"Ġda":5493,"Ġdry":5494,"Ġvide":5495,"ĠLook":5496,"Ġproduce":5497,"ĠUnivers":5498,"Ġrental":5499,"Ġmorning":5500,"ĠColumb":5501,"Ġlargely":5502,"Ġpropag":5503,"\").":5504,"itiz":5505,"ĠKat":5506,"ĠYOU":5507,"umph":5508,"Ġintellect":5509,"Ġsoldier":5510,"Ġassume":5511,"Ġblonde":5512,"Ġfamilies":5513,"cul":5514,"ĠWH":5515,"Ġplans":5516,"Ġcommand":5517,"Ġdeaths":5518,"ĠMcG":5519,"Ġshocked":5520,"Ġexistence":5521,"zo":5522,"Ġappropriate":5523,"ĠCarl":5524,"Ġcapture":5525,"ĠPresident":5526,"ĠCinem":5527,"ĠNorth":5528,"Ġterm":5529,"Ġerotic":5530,"Ġpuzz":5531,"emporary":5532,"gun":5533,"Ġtable":5534,"Ġscare":5535,"Ġlogic":5536,"Ġcompan":5537,"Ġcrash":5538,"Ġpsycho":5539,"Ġembarrassing":5540,"Ġqualities":5541,"aa":5542,"Ġtem":5543,"Ġfreedom":5544,"Ġbatt":5545,"Ġlower":5546,"ume":5547,"Ġspin":5548,"hearted":5549,"done":5550,"rs":5551,"Ġpit":5552,"ĠAst":5553,"ĠSund":5554,"----":5555,"ĠAnna":5556,"ĠQueen":5557,"ĠEliz":5558,"Ġnormally":5559,"Ġlucky":5560,"ĠHope":5561,"Ġjail":5562,"Ġalco":5563,"Ġwhenever":5564,"ungle":5565,"ĠCaptain":5566,"Cl":5567,"RI":5568,"Ġbeach":5569,"ĠSal":5570,"Ġsucked":5571,"reek":5572,"Ġimagin":5573,"Ġsinger":5574,"199":5575,"Ġsteals":5576,"Ġestabl":5577,"Ġdollars":5578,"iver":5579,"Ġcook":5580,"ĠLord":5581,"udes":5582,"Ġcontro":5583,"Ġsource":5584,"GE":5585,"fit":5586,"Ġbath":5587,"Ġsop":5588,"ĠPowell":5589,"ĠBrad":5590,"ĠAgain":5591,"Ġhaunting":5592,"ĠEric":5593,"Ġhol":5594,"ĠBeat":5595,"Ġzero":5596,"Ġtheatrical":5597,"hise":5598,"ĠAra":5599,"Ġwel":5600,"ĠFBI":5601,"ights":5602,"Ġlog":5603,"Ġquir":5604,"Ġsurface":5605,"Ġcreatures":5606,"Ġincreas":5607,"):":5608,"hum":5609,"Ġpal":5610,"Ġdirty":5611,"ĠBell":5612,"Ġvan":5613,"beat":5614,"Ġlaughter":5615,"Ġtechnology":5616,"ĠREAL":5617,"icate":5618,"osaur":5619,"Ġunfortunate":5620,"Ġviewed":5621,"Ġbelieves":5622,"Ġexcit":5623,"Ġwalks":5624,"Ġlosing":5625,"teresting":5626,"Ġwedding":5627,"yer":5628,"ĠTaylor":5629,"Ġhearing":5630,"ĠBrian":5631,"Ġarms":5632,"Ġoffensive":5633,"Ġrealizes":5634,"ĠUp":5635,"Ġsumm":5636,"Ġinevit":5637,"vy":5638,"Ġfle":5639,"Ġdressed":5640,"Ġlesson":5641,"Ġpulls":5642,"Ġtwisted":5643,"Ġenvironment":5644,"Le":5645,"made":5646,"wing":5647,"Ġsch":5648,"Ġvs":5649,"Ġexcited":5650,"ĠDunne":5651,"Ġfrankly":5652,"Ġgratuitous":5653,"Ġpunch":5654,"iration":5655,"urday":5656,"ĠWhe":5657,"Ġfrustr":5658,"Ġarrest":5659,"ĠTHIS":5660,"Ġfeatured":5661,"uclear":5662,"Ġholding":5663,"Ġsharp":5664,"Ġnaive":5665,"gers":5666,"ĠAndrew":5667,"oken":5668,"erie":5669,"ĠNorm":5670,"ĠEVER":5671,"Ġpoign":5672,"Ġadop":5673,"Ġspends":5674,"Ġprice":5675,"Ġlie":5676,"ĠSk":5677,"Ġbringing":5678,"Ġexpression":5679,"lim":5680,"ship":5681,"Ġcro":5682,"Ġcant":5683,"Ġconsp":5684,"Ġmakeup":5685,"Ġstayed":5686,"Ġpractically":5687,"Ġconversation":5688,"ĠCalifornia":5689,"Ġpaced":5690,"Ġgrown":5691,"Ġwear":5692,"orting":5693,"ĠAndy":5694,"ocal":5695,"ENT":5696,"Ġmagnificent":5697,"Ġmask":5698,"ilty":5699,"Ġpregn":5700,"Ġspeaks":5701,"Ġladies":5702,"wen":5703,"Ġsegment":5704,"ĠRem":5705,"Ġrules":5706,"Ġyeah":5707,"Ġaccomp":5708,"rett":5709,"Ġmatters":5710,"Ġprovided":5711,"Ġlearns":5712,"Ġdanger":5713,"ĠHaving":5714,"girl":5715,"ixt":5716,"matic":5717,"pass":5718,"orse":5719,"Ġdrop":5720,"iday":5721,"Ġ11":5722,"formed":5723,"Ġshop":5724,"Ġexperiences":5725,"Ġsupernatural":5726,"Ġcenter":5727,"ĠWarner":5728,"Ġdevice":5729,"Ġstopped":5730,"Ġrelatively":5731,"20":5732,"Ġlink":5733,"ĠSant":5734,"ĠLloyd":5735,"Ġinvolve":5736,"Ġreput":5737,"198":5738,"Ġsensitive":5739,"nal":5740,"eral":5741,"ĠMars":5742,"ĠLand":5743,"ĠFriday":5744,"Ġunp":5745,"Ġcreates":5746,"Ġforgettable":5747,"Ġessentially":5748,"ĠTexas":5749,"Ġexcitement":5750,"She":5751,"lot":5752,"ari":5753,"onda":5754,"ogether":5755,"Ġwarning":5756,"ĠLucy":5757,"Ġgoofy":5758,"zilla":5759,"utch":5760,"amily":5761,"Ġdemonstr":5762,"Ġpraise":5763,"Ġreminis":5764,"Ġdriver":5765,"ĠWilson":5766,"ĠInt":5767,"Ġrevel":5768,"ulp":5769,"aken":5770,"Ġfactor":5771,"Ġcompos":5772,"Ġrepet":5773,"ugos":5774,"gon":5775,"gie":5776,"Ġdynam":5777,"ĠSH":5778,"ĠSy":5779,"ĠEve":5780,"ĠEvil":5781,"ĠStates":5782,"ĠDoes":5783,"Ġdisgusting":5784,"ĠApparently":5785,"Ġveteran":5786,"Ġcust":5787,"Ġwhilst":5788,"Ġsheriff":5789,"Ġoverlook":5790,"ĠChaplin":5791,"Ġstereotypical":5792,"ĠActually":5793,"ĠMeanwhile":5794,"vo":5795,"Ġic":5796,"Ġhey":5797,"Ġscar":5798,"Ġconsequ":5799,"Ġenemy":5800,"Ġclic":5801,"viously":5802,"Ġpresents":5803,"Ġpurcha":5804,"Ġdestroyed":5805,"Ġweapons":5806,"ipped":5807,"phan":5808,"Ġsche":5809,"umber":5810,"Ġcring":5811,"ĠClark":5812,"Ġpleasant":5813,"Ġidiot":5814,"Ġmultiple":5815,"written":5816,"Ġfalse":5817,"ked":5818,"espite":5819,"ĠThing":5820,"ĠVER":5821,"Ġcommitted":5822,"ĠUnited":5823,"Ġexpos":5824,"Ġrefer":5825,"ĠIsland":5826,"ields":5827,"Ġextraord":5828,"Ġdrinking":5829,"Ġexperienced":5830,"Ġ)":5831,"ĠCast":5832,"Ġexagger":5833,"ĠRoy":5834,"Ġbetray":5835,"Ġtext":5836,"Ġbelieved":5837,"ĠEdward":5838,"ij":5839,"ĠEach":5840,"ĠJackie":5841,"Ġmetal":5842,"Ġsubstance":5843,"ĠTurner":5844,"Ġpropaganda":5845,"ration":5846,"otion":5847,"Ġstolen":5848,"Ġendless":5849,"Ġguard":5850,"Ġfocuses":5851,"Ġroutine":5852,"bly":5853,"eds":5854,"ĠHun":5855,"Ġrights":5856,"Ġreporter":5857,"Ġportraying":5858,"Ġtouches":5859,"class":5860,"zil":5861,"ĠMil":5862,"ĠDian":5863,"Ġstrongly":5864,"Ġsnow":5865,"Ġcaused":5866,"Ġruined":5867,"ĠNichol":5868,"Ġfits":5869,"hob":5870,"ĠCooper":5871,"ĠPac":5872,"abe":5873,"aren":5874,"Ġhandled":5875,"Ġglass":5876,"Ġcommit":5877,"icit":5878,"ston":5879,"Ġwealthy":5880,"ĠCass":5881,"ĠHill":5882,"ĠHaw":5883,"Ġfranc":5884,"Ġconce":5885,"Ġages":5886,"Ġcutting":5887,"Ġcostume":5888,"Ġlegendary":5889,"Ġencounter":5890,"ani":5891,"ato":5892,"asant":5893,"ĠTor":5894,"ĠPenn":5895,"Ġevening":5896,"ĠUK":5897,"Ġpursu":5898,"Ġsuffers":5899,"Ġclaims":5900,"Ġscreaming":5901,"Ġamateurish":5902,"Ġconvinced":5903,"Ġsophistic":5904,"ĠTHAT":5905,"Ġfrightening":5906,"Ġabandoned":5907,"Ġmanipul":5908,"world":5909,"nda":5910,"ĠHong":5911,"ĠKenn":5912,"Ġenter":5913,"Ġappl":5914,"Ġmethod":5915,"Ġcomplain":5916,"Ġharsh":5917,"Another":5918,"ĠSusan":5919,"ĠLynch":5920,"Ġgentle":5921,"pet":5922,"Ġdisag":5923,"Ġpromising":5924,"Ġcloser":5925,"ĠSandler":5926,"Every":5927,"amous":5928,"Ġlift":5929,"ĠCandy":5930,"ĠPre":5931,"Ġacqu":5932,"Ġstructure":5933,"ĠLouis":5934,"Ġdivor":5935,"ĠBogart":5936,"Ar":5937,"ION":5938,"Ġtax":5939,"ĠTur":5940,"ĠBu":5941,"ĠDem":5942,"ĠKim":5943,"ĠAndre":5944,"Ġtrapped":5945,"Ġdriven":5946,"ĠCarol":5947,"ĠShar":5948,"VE":5949,"dom":5950,"die":5951,"rees":5952,"Ġfestival":5953,"Ġlousy":5954,"Ġstom":5955,"Ġgreater":5956,"Ġgritty":5957,"apping":5958,"Ġcorny":5959,"ĠThank":5960,"ĠHelen":5961,"BO":5962,"ww":5963,"Ġfish":5964,"Ġfict":5965,"anks":5966,"Ġconvey":5967,"ĠVin":5968,"ĠJohnson":5969,"Ġstatement":5970,"Ġhanging":5971,"Ġdepicted":5972,"vest":5973,"Ġisol":5974,"ioned":5975,"ĠSon":5976,"ĠRoman":5977,"Ġworry":5978,"Ġcamer":5979,"ĠMarc":5980,"Ġpolitics":5981,"ĠMexico":5982,"Ġremotely":5983,"produ":5984,"Ġwound":5985,"arning":5986,"Ġheck":5987,"Ġancient":5988,"ĠRick":5989,"Ġfare":5990,"Ġende":5991,"Ġserves":5992,"Ġconcent":5993,"Ġvariety":5994,"Ġarrives":5995,"Ġinfluence":5996,"dim":5997,"uh":5998,"Ġdogs":5999,"Ġabuse":6000,"Ġunfor":6001,"Ġshut":6002,"Ġspark":6003,"Ġbitter":6004,"Ġrevolution":6005,"!),":6006,"ault":6007,"Ġasleep":6008,"Ġrough":6009,"Ġclue":6010,"spired":6011,"Ġsuspenseful":6012,"Ġsuffer":6013,"Ġdelightful":6014,"Ġinterviews":6015,"equ":6016,"horror":6017,"Ġmir":6018,"lleng":6019,"ĠCurt":6020,"ĠWind":6021,"Ġvague":6022,"Ġflo":6023,"Ġcontact":6024,"Ġenjoying":6025,"Ġinvent":6026,"ĠSimon":6027,"Ġstatus":6028,"Ġcurious":6029,"ls":6030,"long":6031,"Ġpile":6032,"ĠMet":6033,"antage":6034,"ĠOur":6035,"Ġreviewer":6036,"ĠHarris":6037,"Ġcomplicated":6038,"Ġquirky":6039,"Of":6040,"UR":6041,"Ġinner":6042,"Ġraised":6043,"ĠAsh":6044,"Ġideal":6045,"ĠStewart":6046,"Ġcosts":6047,"Ġunivers":6048,"fess":6049,"upp":6050,"hard":6051,"ĠTO":6052,"ĠBor":6053,"Ġhole":6054,"scape":6055,"including":6056,"ĠGrand":6057,"Ġcrying":6058,"ĠVietnam":6059,"Am":6060,"From":6061,"Like":6062,"Ġliber":6063,"Ġarg":6064,"ressive":6065,"Ġperformed":6066,"ucky":6067,"Ġdescript":6068,"nes":6069,"asp":6070,"Ġhack":6071,"idents":6072,"ĠMi":6073,"Ġdirectly":6074,"Ġversions":6075,"Ġskip":6076,"Ġchoices":6077,"kind":6078,"mind":6079,"whel":6080,"Ġgig":6081,"ĠDar":6082,"ĠJess":6083,"Ġscenario":6084,"Ġrival":6085,"ĠComp":6086,"Ġsearching":6087,"ĠEspecially":6088,"Ġreputation":6089,"11":6090,"Ġain":6091,"iled":6092,"ĠBack":6093,"Ġchalleng":6094,"Ġtitles":6095,"Ġmovement":6096,"ĠLinda":6097,"Ġprivate":6098,"Ġbothered":6099,"ker":6100,"Ġfix":6101,"orig":6102,"Ġnuclear":6103,"Ġhen":6104,"uls":6105,"ĠNY":6106,"icked":6107,"ĠMarie":6108,"Ġlatest":6109,"Ġfunnier":6110,"Ġcrimin":6111,"IM":6112,"Ġtap":6113,"enstein":6114,"Ġhired":6115,"aming":6116,"usi":6117,"beit":6118,"Ġmainstream":6119,"Ġsket":6120,"ĠclichÃ©d":6121,"ĠDanny":6122,"omination":6123,"Ġstab":6124,"Ġdeeper":6125,"Ġneat":6126,"osity":6127,"coming":6128,"ĠCanadian":6129,"ĠBarbara":6130,"ĠElizabeth":6131,"sl":6132,"zed":6133,"Ġoutrage":6134,"Ġeverywhere":6135,"ĠVir":6136,"Ġsubsequ":6137,"Ġentertained":6138,"ĠThree":6139,"Ġvoices":6140,"Ġwalked":6141,"Ġprior":6142,"sm":6143,"Ġtoler":6144,"uty":6145,"ĠLater":6146,"ĠRam":6147,"ĠFonda":6148,"Ġspite":6149,"Ġcourage":6150,"Ġscreening":6151,"Ġbreaking":6152,"buster":6153,"iat":6154,"iner":6155,"ethe":6156,"rocious":6157,"Ġscale":6158,"Ġpartic":6159,"Ġguilty":6160,"Ġobnox":6161,"ĠLeon":6162,"Ġcampy":6163,"Ġpupp":6164,"ĠLaura":6165,"Ġinitial":6166,"ĠSarah":6167,"Man":6168,"gia":6169,"mother":6170,"aude":6171,"Then":6172,"Ġflesh":6173,"Ġcheer":6174,"Ġevol":6175,"Ġexplains":6176,"ĠBefore":6177,"Ġpolic":6178,"umbling":6179,"Ġamazed":6180,"Also":6181,"Ġ1960":6182,"ĠAcademy":6183,"ĠVERY":6184,"CK":6185,"Ġbound":6186,"Ġbond":6187,"Ġrise":6188,"Ġnostal":6189,"igned":6190,"ĠReally":6191,"ĠKeaton":6192,"ĠBroad":6193,"ĠGuy":6194,"Ġsympathy":6195,"Ġpan":6196,"Ġstates":6197,"ĠALL":6198,"ĠMaster":6199,"Ġserve":6200,"Ġincident":6201,"Ġoriginality":6202,"Ġlights":6203,"Ġrequired":6204,"cons":6205,"Ġcore":6206,"Ġexcess":6207,"Ġposition":6208,"Ġheavily":6209,"Ġuninteresting":6210,"Ġdegree":6211,"hist":6212,"idge":6213,"ĠMiller":6214,"Ġvast":6215,"ĠLost":6216,"ĠNone":6217,"Ġappealing":6218,"ĠAnne":6219,"Ġconcert":6220,"Ġservice":6221,"mod":6222,"lla":6223,"ĠHop":6224,"ĠWes":6225,"ems":6226,"Ġven":6227,"ĠOb":6228,"Ġshark":6229,"ĠSaturday":6230,"Ġhaunted":6231,"ĠGeneral":6232,"?).":6233,"than":6234,"ule":6235,"Â´":6236,"Ġpity":6237,"Ġwears":6238,"izz":6239,"Ġworthwhile":6240,"Ġchosen":6241,"ĠDonald":6242,"Ġdelivery":6243,"ĠJulia":6244,"Ġ1940":6245,"Ġstomach":6246,"hh":6247,"Ġwand":6248,"Ġfram":6249,"Ġfarm":6250,"Ġcarries":6251,"retty":6252,"Ġsyn":6253,"Ġcaptiv":6254,"Ġforest":6255,"Ġchanging":6256,"Ġattacked":6257,"Ġimprove":6258,"Ġjoin":6259,"Ġ0":6260,"ĠKate":6261,"nery":6262,"cover":6263,"atching":6264,"Ġmelodrama":6265,"Ne":6266,"after":6267,"ĠCann":6268,"Ġunif":6269,"Ġambit":6270,"appy":6271,"Ġminds":6272,"ĠTarant":6273,"ĠAre":6274,"ĠPri":6275,"udic":6276,"oster":6277,"ĠAnyone":6278,"Ġoccasional":6279,"ĠSwed":6280,"dimensional":6281,"Ġcriminals":6282,"can":6283,"anny":6284,"Ġreject":6285,"Ġsemi":6286,"Ġplaced":6287,"ĠFinally":6288,"Ġchurch":6289,"Ġdecades":6290,"Ġkinds":6291,"ĠBrand":6292,"ĠChaney":6293,"Ġprofessor":6294,"Ġreference":6295,"ĠBatman":6296,"Ġpool":6297,"ĠEv":6298,"Ġchuck":6299,"ĠBeaut":6300,"ĠThrough":6301,"Ġcritical":6302,"Ġspoilers":6303,"Ġstruggling":6304,"finitely":6305,"law":6306,"Ġbesides":6307,"style":6308,"Ġcontemporary":6309,"Ġnewsp":6310,"Ġconvince":6311,"ĠFranco":6312,"Ġpreviously":6313,"kespe":6314,"Ġsucceeds":6315,"etheless":6316,"Do":6317,"GM":6318,"__":6319,"ĠHE":6320,"Ġatrocious":6321,"actic":6322,"ramatic":6323,"Ġsurprises":6324,"ĠArgent":6325,"Ġcharge":6326,"ĠAmaz":6327,"Ġrobot":6328,"Ġaccidentally":6329,"BS":6330,"fall":6331,"Ġice":6332,"Ġsne":6333,"Ġcris":6334,"ĠYour":6335,"Ġserved":6336,"ĠUnlike":6337,"Ġexamples":6338,"Ġdemand":6339,"ĠIrish":6340,"Ġtraditional":6341,"Ġdubbed":6342,"ients":6343,"Ġped":6344,"ety":6345,"Ġraw":6346,"Ġdownright":6347,"Ġfigured":6348,"chell":6349,"Ġreligion":6350,"Ġemphas":6351,"Ġobnoxious":6352,"ease":6353,"Ġnude":6354,"oooo":6355,"ĠBurn":6356,"urs":6357,"ĠGreg":6358,"Ġtruck":6359,"Ġgrim":6360,"Ġcovered":6361,"Ġangles":6362,"Ġdesperately":6363,"Ġunconvincing":6364,"ait":6365,"mal":6366,"onest":6367,"Ġclown":6368,"avy":6369,"Ġvisually":6370,"Ġthrows":6371,"nor":6372,"had":6373,"Ġinha":6374,"atives":6375,"oms":6376,"Ġstorytelling":6377,"Ġformat":6378,"ronic":6379,"Ġclosing":6380,"lected":6381,"Ġsection":6382,"ĠCons":6383,"Ġscares":6384,"ĠFair":6385,"ianc":6386,"Ġkillers":6387,"Ġsky":6388,"Ġstarred":6389,"Ġlonely":6390,"hib":6391,"Ġmas":6392,"ĠLat":6393,"ĠKen":6394,"aze":6395,"ĠChic":6396,"Ġdistribut":6397,"Ġdeliber":6398,"ĠWithout":6399,"Ġgraph":6400,"ĠSadly":6401,"Ġdetermined":6402,"Ġparticip":6403,"fun":6404,"ype":6405,"ĠIra":6406,"ĠSO":6407,"Ġwerewolf":6408,"Ġrestaur":6409,"Ġpaying":6410,"Ġharm":6411,"Ġanswers":6412,"Ġuncomfortable":6413,"Ġcategory":6414,"ss":6415,"Ġludic":6416,"arable":6417,"othy":6418,"ĠTed":6419,"Ġjungle":6420,"Ġtiming":6421,"Ġarch":6422,"ĠArt":6423,"Ġpainting":6424,"Ġmagical":6425,"Ġwinner":6426,"Ġreminiscent":6427,"Ġtear":6428,"awa":6429,"Ġaccents":6430,"ĠZomb":6431,"Ġcondition":6432,"ĠJoseph":6433,"Ste":6434,"Ġoil":6435,"stone":6436,"ams":6437,"ĠCH":6438,"Ġrain":6439,"atherine":6440,"Ġsorts":6441,"ĠBritain":6442,"Ġfootball":6443,"ĠPlay":6444,"ĠJewish":6445,"ĠBasically":6446,"Ġdepartment":6447,"tes":6448,"Ġtong":6449,"hand":6450,"hamed":6451,"iders":6452,"ĠLos":6453,"Ġblat":6454,"Ġexperiment":6455,"Ġcontribut":6456,"breaking":6457,"ĠMassacre":6458,"IGHT":6459,"tw":6460,"Ġbill":6461,"atically":6462,"Ġseve":6463,"ĠRoss":6464,"ĠGr":6465,"plays":6466,"Ġhorrific":6467,"Ġrelated":6468,"ĠRoberts":6469,"Ġtiny":6470,"Ġgar":6471,"etime":6472,"ĠMit":6473,"Ġ25":6474,"Ġrobber":6475,"Ġregarding":6476,"Ġunderstood":6477,"Ġfranchise":6478,"Is":6479,"ux":6480,"Ġrev":6481,"ĠLady":6482,"ĠNE":6483,"Ġblown":6484,"Ġprime":6485,"Ġextras":6486,"Ġproperly":6487,"Ġobsessed":6488,"Ġaccompan":6489,"ĠTarantino":6490,"eter":6491,"ĠSometimes":6492,"ĠHal":6493,"Ġprete":6494,"Ġcontain":6495,"ibilities":6496,"except":6497,"Ġdistinct":6498,"Ġstops":6499,"belief":6500,"ĠChannel":6501,"Ġstylish":6502,"called":6503,"Ġstated":6504,"Ġstalk":6505,"liver":6506,"Ġcauses":6507,"Michael":6508,"port":6509,"rehen":6510,"Ġdozen":6511,"ocaust":6512,"Ġjobs":6513,"Ġnaturally":6514,"Ġcaptures":6515,"Ġruin":6516,"ĠSatan":6517,"ĠDet":6518,"Ġjeal":6519,"umble":6520,"ĠGun":6521,"pson":6522,"Ġadding":6523,"Ġmassive":6524,"lance":6525,"orrow":6526,"onel":6527,"ils":6528,"ĠMort":6529,"ĠWall":6530,"Ġinteg":6531,"ĠJu":6532,"Ġloyal":6533,"Ġ14":6534,"Ġshowc":6535,"ĠClass":6536,"Ġterrorist":6537,"ugosi":6538,"vably":6539,"enced":6540,"Ġseek":6541,"ello":6542,"Ġpresident":6543,"Ġpresentation":6544,"ingu":6545,"ilogy":6546,"imm":6547,"kend":6548,"Ġantic":6549,"Ġseasons":6550,"ĠLam":6551,"ĠJac":6552,"Ġprevent":6553,"orsese":6554,"Ġflow":6555,"Ġbuying":6556,"ĠTommy":6557,"Ġ2000":6558,"ĠOtherwise":6559,"AA":6560,"Ġsink":6561,"Ġinj":6562,"ĠIce":6563,"ĠTri":6564,"Ġrend":6565,"ĠMid":6566,"ĠDuring":6567,"Ġvia":6568,"ĠRand":6569,"ĠKirk":6570,"Ġspell":6571,"Ġattempting":6572,"Ġfavorites":6573,"ĠGermany":6574,"ielberg":6575,"Ġrule":6576,"Ġinitially":6577,"Ġnecessarily":6578,"Ġcontrovers":6579,"IR":6580,"Will":6581,"from":6582,"low":6583,"Ġtree":6584,"ashy":6585,"omer":6586,"Ġbutt":6587,"ige":6588,"Ġshape":6589,"Ġuniverse":6590,"Ġurban":6591,"Ġoffered":6592,"Ġturkey":6593,"Ġenthusi":6594,"Ġmere":6595,"henomen":6596,"Ġsecurity":6597,"Ġhandle":6598,"Ġmature":6599,"Ġcountries":6600,"Ġprofound":6601,"Ġirre":6602,"ĠPhill":6603,"ĠAustralian":6604,"Ġcynical":6605,"Ġdisagree":6606,"Here":6607,"den":6608,"ooth":6609,"Ġcarried":6610,"Ġattacks":6611,"ĠAvoid":6612,"Ġsinister":6613,"Con":6614,"kick":6615,"Ġchose":6616,"eness":6617,"race":6618,"ĠMGM":6619,"thew":6620,"Ġspoiler":6621,"Ġencou":6622,"Ġchallenge":6623,",'":6624,"iable":6625,"iques":6626,"ube":6627,"ange":6628,"ĠSin":6629,"ĠGet":6630,"Ġrot":6631,"irected":6632,"Ġcontest":6633,"Ġconfess":6634,"ĠShakespe":6635,"Ġunlikely":6636,"ĠCanada":6637,"cut":6638,"laim":6639,"rich":6640,"Ġded":6641,"Ġyell":6642,"ĠBa":6643,"ĠMuch":6644,"Ġactiv":6645,"ĠPower":6646,"Ġsav":6647,"Ġcoinc":6648,"Ġwarned":6649,"Ġrecognize":6650,"Ġkidnapped":6651,"helle":6652,"original":6653,"aves":6654,"Ġtask":6655,"Ġwitch":6656,"esc":6657,"Ġanger":6658,"ĠRun":6659,"Ġupset":6660,"Ġpassing":6661,"Ġcorpor":6662,"ĠGodzilla":6663,"Ġequal":6664,"Ġpoignant":6665,"Char":6666,"ipping":6667,"erved":6668,"Ġcand":6669,"ĠDream":6670,"Ġdisbelief":6671,"icted":6672,"Ġcalling":6673,"Ġcrack":6674,"Ġnarration":6675,"Ġnu":6676,"Ġmyth":6677,"Ġ17":6678,"ĠKill":6679,"forward":6680,"Ġdisgu":6681,"Ġbasis":6682,"Ġextent":6683,"Ġamongst":6684,"Ġspoiled":6685,"Ġthrowing":6686,"Ġlawyer":6687,"Ġdesigned":6688,"OOD":6689,"Ġcriticism":6690,"Ġgruesome":6691,"Ex":6692,"something":6693,"ila":6694,"ĠAL":6695,"rig":6696,"ĠJer":6697,"Ġmansion":6698,"Ġgreatly":6699,"assion":6700,"Ġentry":6701,"ĠSchool":6702,"ĠFrankenstein":6703,"Ġfictional":6704,"Ad":6705,"UL":6706,"Ġgro":6707,"amor":6708,"ĠDi":6709,"ummer":6710,"ĠChina":6711,"Ġoccup":6712,"Ġproductions":6713,"Ġcontinuity":6714,"Ġexplosions":6715,"Ġextraordinary":6716,"âĢ":6717,"athan":6718,"Ġgain":6719,"Ġnominated":6720,"ĠCary":6721,"ĠDep":6722,"Ġchap":6723,"Ġoverwhel":6724,"Ġraise":6725,"Ġborder":6726,"Ġmindless":6727,"Ġexchan":6728,"Ġstruck":6729,"Ġeffectively":6730,"Ġignor":6731,"Ġmerc":6732,"ĠKarloff":6733,"orc":6734,"seud":6735,"ĠPa":6736,"Ġrank":6737,"Ġadequ":6738,"Ġsimpl":6739,"ĠHarold":6740,"Ġadvantage":6741,"Per":6742,"Ġmac":6743,"Ġbore":6744,"ĠPhant":6745,"Ġqueen":6746,"gging":6747,"airs":6748,"ĠArn":6749,"ĠBrooks":6750,"Ġexpressions":6751,"ĠTodd":6752,"Ġpregnant":6753,"fest":6754,"ucc":6755,"Ġpiano":6756,"alling":6757,"ĠCry":6758,"ĠLugosi":6759,"Ġlearning":6760,"ĠBeing":6761,"ĠSpielberg":6762,"Ġdeadly":6763,"Ġnovels":6764,"ĠNeil":6765,"Ġmistakes":6766,"Ġmildly":6767,"Ġsummary":6768,"Pl":6769,"noon":6770,"Ġcous":6771,"Ġgut":6772,"Ġnotable":6773,"ĠBlue":6774,"Ġreveals":6775,"iveness":6776,"ĠOliv":6777,"Ġsignificant":6778,"UST":6779,"ota":6780,"oween":6781,"Ġcomical":6782,"mentioned":6783,"Ġincor":6784,"Ġterrit":6785,"prise":6786,"Ġflawed":6787,"ĠQuaid":6788,"ĠJimmy":6789,"By":6790,"iation":6791,"Ġsisters":6792,"Ġabilities":6793,"...\"":6794,"Ġpoet":6795,"Ġaged":6796,"Ġeveryday":6797,"Ġcrimes":6798,"Ġgrad":6799,"Ġdisappear":6800,"Ġprostitute":6801,"ĠLeslie":6802,"mber":6803,"Ġske":6804,"Ġwanna":6805,"isc":6806,"Ġfond":6807,"arm":6808,"Ġnational":6809,"Ġreun":6810,"ĠSol":6811,"ĠBette":6812,"ĠPitt":6813,"ĠEnd":6814,"ĠScorsese":6815,"Ġstrict":6816,"Ġdepiction":6817,"Ġamazingly":6818,"Robert":6819,"Ġsophisticated":6820,"hett":6821,"ĠBollywood":6822,"ĠCru":6823,"Ġdiss":6824,"oche":6825,"Ġaccess":6826,"AND":6827,"Ġsurrounding":6828,"Ġprepared":6829,"Ġludicrous":6830,"bour":6831,"Ġton":6832,"ingers":6833,"story":6834,"ĠMill":6835,"plend":6836,"Ġconfusion":6837,"Ġatmospher":6838,"Ġintroduction":6839,"Ġtremend":6840,"ĠWWII":6841,"Ġracist":6842,"ĠMitchell":6843,"El":6844,"Okay":6845,"Ġstiff":6846,"ifies":6847,"Ġplastic":6848,"ĠRachel":6849,"ĠOver":6850,"Ġflight":6851,"Ġaccording":6852,"Ġartists":6853,"insaw":6854,"Ġuncle":6855,"Ġassistant":6856,"Ġrestaurant":6857,"rep":6858,"handed":6859,"Ġphenomen":6860,"lection":6861,"ĠTake":6862,"adays":6863,"ĠAir":6864,"ĠBesides":6865,"Ġchair":6866,"agal":6867,"Ġblah":6868,"Ġtraining":6869,"ĠMaria":6870,"Ġswim":6871,"Ġcombined":6872,"Ġignore":6873,"ĠYeah":6874,"Ġwid":6875,"Ġelder":6876,"ada":6877,"ĠAk":6878,"rix":6879,"ĠCro":6880,"Ġevident":6881,"Ġprisoners":6882,"Ġappreciated":6883,"Ġinternational":6884,"ĠAfrica":6885,"ĠLucas":6886,"Ġsurvivors":6887,"ĠHunter":6888,"Ġbik":6889,"entric":6890,"Ġstays":6891,"Ġashamed":6892,"Ġsounded":6893,"......":6894,"Ġinteract":6895,"Ġparall":6896,"Ġtouched":6897,"ĠEnter":6898,"Ġofficial":6899,"conom":6900,"ĠParker":6901,"ĠBroadway":6902,"Ġreward":6903,"ĠSir":6904,"ĠSur":6905,"ĠSqu":6906,"Ġsports":6907,"Ġslo":6908,"Ġsurf":6909,"Ġpicks":6910,"Ġtechnique":6911,"sett":6912,"Ġdescription":6913,"Ġtro":6914,"Ġbuddy":6915,"ĠTy":6916,"Ġhiding":6917,"ĠDie":6918,"ĠOliver":6919,"Ġgoal":6920,"Ġenhan":6921,"Ġteeth":6922,"Ġripped":6923,"Ġelev":6924,"Ġpaint":6925,"Ġarrive":6926,"ĠWatching":6927,"Ġbelongs":6928,"Ġobscure":6929,"Ġwelcome":6930,"Ġ#":6931,"Ġcandy":6932,"arter":6933,"ĠAud":6934,"eline":6935,"ĠRuth":6936,"Ġfacial":6937,"Ġadmire":6938,"Ġcultural":6939,"Ġstriking":6940,"ĠHopkins":6941,"\"?":6942,"Who":6943,"together":6944,"ym":6945,"Ġlaid":6946,"Ġnative":6947,"Ġstunt":6948,"Ġasp":6949,"Ġspending":6950,"Ġlesser":6951,"ĠMarch":6952,"Ġfigures":6953,"Ġsleazy":6954,"Ġgripping":6955,"ĠJesus":6956,"Ġfirm":6957,"orks":6958,"Ġpseud":6959,"Ġgreed":6960,"rien":6961,"Ġweight":6962,"ĠCap":6963,"Ġneck":6964,"ĠNin":6965,"Ġfac":6966,"Ġtricks":6967,"Ġbrave":6968,"Ġdevil":6969,"Ġangle":6970,"iracy":6971,"Ġstruggles":6972,"afia":6973,"ĠDuke":6974,"Ġfabulous":6975,"Director":6976,"IA":6977,"fits":6978,"ns":6979,"Ġwins":6980,"ĠProdu":6981,"Ġmeat":6982,"ptic":6983,"Ġknife":6984,"weet":6985,"Ġviews":6986,"Ġsmooth":6987,"Ġelabor":6988,"ographer":6989,"Ġfocused":6990,"Ġcolorful":6991,"Ġrevolves":6992,"ĠAngeles":6993,"Ġprotagonists":6994,"ĠThanks":6995,"Ġaston":6996,"Ġbalance":6997,"Ġshadow":6998,"Ġmarvelous":6999,"Ġnewspaper":7000,"Dav":7001,"isher":7002,"Ġhip":7003,"ĠHor":7004,"ĠWoo":7005,"Ġjack":7006,"ĠFull":7007,"ĠGriff":7008,"avor":7009,"Ġscripts":7010,"oked":7011,"Ġembarrassed":7012,"Ġweapon":7013,".-":7014,"jud":7015,"Ġcave":7016,"lle":7017,"ĠMOV":7018,"Ġscr":7019,"Ġshoots":7020,"Ġcolors":7021,"Ġilleg":7022,"going":7023,"Ġsettings":7024,"ashington":7025,"Ġcases":7026,"Ġfaithful":7027,"Mar":7028,"wl":7029,"Ġeconom":7030,"ĠFore":7031,"Ġrat":7032,"Ġfeed":7033,"Ġspy":7034,"rank":7035,"Ġfinan":7036,"Ġscreenwriter":7037,"Ġletting":7038,"Ġidiotic":7039,"Ġcharisma":7040,"Ġintellectual":7041,"LD":7042,"fire":7043,"ught":7044,"wh":7045,"Ġdude":7046,"ĠMoon":7047,"Ġexists":7048,"Ġrub":7049,"Ġclips":7050,"Ġcoach":7051,"ĠDevil":7052,"ĠConnery":7053,"Ġstunts":7054,"Ġinnocence":7055,"ĠANY":7056,"ĠShakespeare":7057,"uper":7058,"oration":7059,"Ġeth":7060,"Ġnation":7061,"iments":7062,"imately":7063,"Ġthirty":7064,"Ġplant":7065,"Ġcheese":7066,"Ġnightmare":7067,"Ġimagery":7068,"comedy":7069,"Ġinspiration":7070,"Ġcuriosity":7071,"Ġrisk":7072,"ĠWalter":7073,"ĠKennedy":7074,"Ġtongue":7075,"Ġatmospheric":7076,"ĠPict":7077,"ĠIndians":7078,"Ġinnov":7079,"Ġpersonalities":7080,"Ġrepetitive":7081,"CM":7082,"ĠTob":7083,"ĠBull":7084,"ĠMo":7085,"ĠMovies":7086,"Ġvivid":7087,"Ġhandful":7088,"Ġcrude":7089,"Ġglimp":7090,"Ġperfection":7091,"Ġguessing":7092,"Ġultra":7093,"ĠMorgan":7094,"Ġinternet":7095,"Ġnetwork":7096,"ĠChicago":7097,"ĠIraq":7098,"Ġanticip":7099,".(":7100,"Bra":7101,"CT":7102,"reet":7103,"Ġcitiz":7104,"icop":7105,"semble":7106,"Ġwasting":7107,"ĠBAD":7108,"ĠMitch":7109,"Ġexer":7110,"ĠGreek":7111,"Ġinstall":7112,"Ġborrow":7113,"Ġhelping":7114,"Ġcaptain":7115,"Ġsolve":7116,"Ġfrequently":7117,"ĠSunday":7118,"Ġglimpse":7119,"Good":7120,"Ġ***":7121,"Ġcig":7122,"Ġpa":7123,"Ġdump":7124,"cellent":7125,"ĠCont":7126,"cket":7127,"ĠWashington":7128,"ooky":7129,"ishment":7130,"Ġstupidity":7131,"Ġjournal":7132,"SPOILERS":7133,"chen":7134,"taking":7135,"Ġfet":7136,"Ġbow":7137,"enberg":7138,"uther":7139,"Ġnoted":7140,"oding":7141,"Ġargu":7142,"Ġweakness":7143,"Ġsuggests":7144,"ambi":7145,"ĠMickey":7146,"Ġtribute":7147,"Ġgraphics":7148,"mate":7149,"ĠShan":7150,"ĠSomething":7151,"ĠHA":7152,"agn":7153,"ĠJay":7154,"Ġenorm":7155,"ĠInc":7156,"Ġchief":7157,"ception":7158,"Ġuseless":7159,"Ġgrows":7160,"Ġrepeat":7161,"Ġescapes":7162,"Ġperformers":7163,"Ġoblig":7164,"Ġestablished":7165,"ĠThings":7166,"70":7167,"80":7168,"Most":7169,"mitted":7170,"Ġfest":7171,"Ġdomin":7172,"Ġlust":7173,"ĠHood":7174,"Ġvicious":7175,"ĠAlbert":7176,"anger":7177,"Ġpersona":7178,"Ġeditor":7179,"ĠWillis":7180,"Ġcredibility":7181,"iamond":7182,"Ġstereotype":7183,"bie":7184,"lers":7185,"Ġtense":7186,"Ġpage":7187,"Ġmock":7188,"ĠPred":7189,"Ġlocked":7190,"Ġenem":7191,"Ġspread":7192,"ĠStud":7193,"Ġcock":7194,"Ġelsewhere":7195,"Ġretarded":7196,"Ġcredible":7197,"Ġexceptional":7198,"Ġantics":7199,"ĠSecret":7200,"CE":7201,"amin":7202,"ĠHome":7203,"Ġvent":7204,"ĠRec":7205,"ĠNik":7206,"ĠOff":7207,"Ġquote":7208,"Ġpreview":7209,"Ġhalfway":7210,"rifice":7211,"Ġinvestigation":7212,"Ġpacked":7213,"Christ":7214,"ĠWilder":7215,"Anyway":7216,"Ġmiserably":7217,"Ġterritory":7218,"hew":7219,"Ġgee":7220,"ĠSing":7221,"ĠBay":7222,"Ġjerk":7223,"ĠFre":7224,"ĠKu":7225,"Ġbackd":7226,"Ġsubplot":7227,"ords":7228,"Ġratings":7229,"Ġcapital":7230,"Ġconnected":7231,"ĠTrek":7232,"Ġminimal":7233,"Despite":7234,"Ġbon":7235,"Ġeerie":7236,"Ġhes":7237,"Ġlibr":7238,"Ġconven":7239,"ĠGro":7240,"ĠGib":7241,"Ġseeking":7242,"Ġafternoon":7243,"Ġkillings":7244,"ĠBlair":7245,"ĠMcD":7246,"Ġgrandfather":7247,"Ġhomage":7248,"Ġpurely":7249,"writers":7250,"Ġuninspired":7251,"Ġcarrying":7252,"Ġreplace":7253,"Ġcabin":7254,"Ġbattles":7255,"Ġdign":7256,"ĠAlf":7257,"ĠBL":7258,"ĠDri":7259,"ogue":7260,"Ġrolling":7261,"Ġresist":7262,"Ġportra":7263,"Ġsitcom":7264,"olden":7265,"Ġimportance":7266,"Ġmetaph":7267,"Ġbroke":7268,"Ġboredom":7269,"Ġseparate":7270,"Ġtorn":7271,"ulk":7272,"ounding":7273,"Ġdislike":7274,"ĠUnder":7275,"Ġchildish":7276,"Ġboot":7277,"Ġgrave":7278,"Ġselfish":7279,"ONE":7280,"ĠAbout":7281,"Ġmirror":7282,"bid":7283,"cr":7284,"ustrated":7285,"Ġunbe":7286,"ointed":7287,"Ġattempted":7288,"Ġexpensive":7289,"Ġsuccessfully":7290,"Ġfairy":7291,"Ġdestro":7292,"Ġsexuality":7293,"Ġ:)":7294,"THE":7295,"Ġinsulting":7296,"ĠIrene":7297,"Ġincreasingly":7298,"when":7299,"Ġtune":7300,"Ġsize":7301,"hai":7302,"ctions":7303,"empl":7304,"Ġshines":7305,"ogical":7306,"Ġarrog":7307,"Ġexplore":7308,"ĠArmy":7309,"Ġrenting":7310,"Ġcolour":7311,"Ġirony":7312,"Ġmillions":7313,"Ġlifest":7314,"Ġthousands":7315,"hill":7316,"ata":7317,"Ġstyl":7318,"ĠSU":7319,"Ġthro":7320,"ĠHug":7321,"ĠWoman":7322,"ĠRep":7323,"ĠOkay":7324,"ĠKane":7325,"ĠKnight":7326,"Ġworkers":7327,"stery":7328,"Ġhelicop":7329,"Ġcarefully":7330,"ĠMarg":7331,"Ġtopic":7332,"ification":7333,"Ġweekend":7334,"Ġspiritual":7335,"Ġrepeatedly":7336,"ĠKorean":7337,"Ġinevitable":7338,"iently":7339,"Ġtempt":7340,"Ġpray":7341,"eder":7342,"atisf":7343,"ĠMont":7344,"ĠMST":7345,"eling":7346,"ANT":7347,"ĠNext":7348,"Ġcringe":7349,"tan":7350,"ĠHit":7351,"Ġjumps":7352,"Ġchamp":7353,"ĠVamp":7354,"ĠChild":7355,"riller":7356,"Ġfallen":7357,"Ġriding":7358,"Ġstrike":7359,"Ġhysterical":7360,"Ġvacation":7361,"via":7362,"hey":7363,"hall":7364,"ĠSa":7365,"ĠLI":7366,"gettable":7367,"pses":7368,"Ġclosely":7369,"Ġbaseball":7370,"Ġinexplic":7371,"ĠUniversal":7372,"Ġoverlooked":7373,"Sh":7374,"TER":7375,"ugh":7376,"Ġsplend":7377,"enes":7378,"Ġinject":7379,"Ġbeating":7380,"chy":7381,"owed":7382,"Ġabrupt":7383,"ĠLion":7384,"ĠRa":7385,"Ġintentions":7386,"Ġovercome":7387,"Ġagents":7388,"Ġguarant":7389,"Ġhappily":7390,"ĠAlice":7391,"Ġexplicit":7392,"ĠPlan":7393,"Ġphilosoph":7394,"box":7395,"ader":7396,"Ġhill":7397,"Ġchases":7398,"istically":7399,"Ġshel":7400,"Ġconsists":7401,"emption":7402,"Ġsleeping":7403,"Unfortunately":7404,"Ġambitious":7405,"BLE":7406,"Great":7407,"Two":7408,"why":7409,"hest":7410,"Ġfil":7411,"Ġfulf":7412,"itle":7413,"ĠCall":7414,"ĠPot":7415,"eller":7416,"Ġguilt":7417,"umbled":7418,"Ġindie":7419,"Ġdrives":7420,"Ġlarger":7421,"Ġacceptable":7422,"ĠFreddy":7423,"Ġphysically":7424,"Ġdinosaur":7425,"iancÃ©":7426,"book":7427,"iar":7428,"Ġafore":7429,"orst":7430,"verty":7431,"ĠSorry":7432,"ĠDays":7433,"ushes":7434,"ĠRee":7435,"ĠGi":7436,"Ġproof":7437,"Ġune":7438,"Ġshout":7439,"new":7440,"ĠIntern":7441,"Ġburied":7442,"Ġpresum":7443,"Ġannoun":7444,"Ġsentimental":7445,"Ġconcerns":7446,"Ġdropped":7447,"ĠEastwood":7448,"30":7449,"Ġtied":7450,"Ġwreck":7451,"erior":7452,"Ġcy":7453,"Ġpir":7454,"Ġdepe":7455,"ĠLarry":7456,"ĠGhost":7457,"pleasant":7458,"Ġoffering":7459,"orses":7460,"wered":7461,"Ġsadistic":7462,"ĠCarter":7463,"Ġironic":7464,"Ġallowing":7465,"Ġsedu":7466,"Maybe":7467,"OD":7468,"mates":7469,"atchable":7470,"Ġecc":7471,"ĠDa":7472,"Ġplague":7473,"ĠFamily":7474,"Ġlegs":7475,"Ġshy":7476,"Ġinstantly":7477,"Ġreasonably":7478,"Ġmonkey":7479,"Ġtechniques":7480,"nels":7481,"walk":7482,"inist":7483,"Ġpush":7484,"Ġlazy":7485,"ĠDad":7486,"Ġjew":7487,"ĠRal":7488,"ructed":7489,"plete":7490,"Ġunderground":7491,"---":7492,"Ġrefuses":7493,"ĠMcK":7494,"Ġbeloved":7495,"Ġobsession":7496,"ĠMOVIE":7497,"Gra":7498,"Ġtag":7499,"amie":7500,"ĠHave":7501,"ĠKid":7502,"Ġhood":7503,"ersonally":7504,"Ġcaring":7505,"Ġshorts":7506,"ficial":7507,"Ġopposed":7508,"Ġreturned":7509,"Ġstealing":7510,"Ġexecut":7511,"Ġvirus":7512,"Ġprincip":7513,"Ġoutrageous":7514,"bal":7515,"inent":7516,"Ġlit":7517,"Ġgal":7518,"Ġbeer":7519,"allo":7520,"ĠBart":7521,"ĠWy":7522,"ĠWould":7523,"ĠPG":7524,"type":7525,"Ġawards":7526,"Ġreasonable":7527,"Ġdragged":7528,"liners":7529,"Ġimmense":7530,"ĠMatthew":7531,"ĠHalloween":7532,"Ġtroubled":7533,"Ġvideos":7534,"put":7535,"Ġlying":7536,"Ġhealth":7537,"ela":7538,"Ġglob":7539,"Ġeleg":7540,"Ġlistening":7541,"Ġpleasantly":7542,"Ġpsychiat":7543,"rehens":7544,"rink":7545,"Ġtoile":7546,"idal":7547,"ĠMom":7548,"Ġsuits":7549,"Ġplanned":7550,"Ġensemble":7551,"ertainly":7552,"Ġinfamous":7553,"Ġtortured":7554,"13":7555,"AIN":7556,"Wow":7557,"bar":7558,"van":7559,"Ġaired":7560,"Ġfro":7561,"Ġstood":7562,"Ġthick":7563,"Ġthumb":7564,"Ġdece":7565,"ĠRight":7566,"Ġintens":7567,"plo":7568,"Ġspoken":7569,"Ġincons":7570,"Ġcastle":7571,"Ġtrilogy":7572,"Ġdevelops":7573,"Ġthrilling":7574,"oiler":7575,"Ġadventures":7576,"Ġidentify":7577,"Ġbleak":7578,"isms":7579,"anz":7580,"Ġbeast":7581,"quis":7582,"udge":7583,"plane":7584,"Ġposter":7585,"Ġpoverty":7586,"Ġmagaz":7587,"Ġmotor":7588,"Ġsurvival":7589,"Ġranks":7590,"Ġcompetent":7591,"Ġbeaten":7592,"warf":7593,"Ġfortun":7594,"Ġsplit":7595,"Ġneighborhood":7596,"Ġimaginative":7597,"pent":7598,"onse":7599,"alley":7600,"Ġkicks":7601,"ĠJosh":7602,"Ġblows":7603,"Ġcontract":7604,"Ġsmoking":7605,"ĠCharact":7606,"Ġopened":7607,"ĠSeagal":7608,"ancing":7609,"Ġthrillers":7610,"ventually":7611,"ĠSpecial":7612,"Ġmotivation":7613,"hil":7614,"imag":7615,"Ġhipp":7616,"ĠBus":7617,"ĠLOV":7618,"osing":7619,"think":7620,"eping":7621,"Ġbeings":7622,"Ġremoved":7623,"ĠScar":7624,"Ġdestruction":7625,"ĠMichelle":7626,"Ġunintentionally":7627,"Ġconsequences":7628,"rict":7629,"water":7630,"ĠTerry":7631,"ĠMed":7632,"ĠWonder":7633,"ulate":7634,"ĠKar":7635,"Ġremaining":7636,"ĠUs":7637,"Ġchest":7638,"ĠClint":7639,"Ġhonor":7640,"Ġaccepted":7641,"Ġessential":7642,"Ġaccomplished":7643,"Ġassociated":7644,"Jack":7645,"aning":7646,"ĠSex":7647,"ĠWOR":7648,"Ġsuffe":7649,"place":7650,"oyle":7651,"Ġ24":7652,"ĠBeast":7653,"ĠItaly":7654,"Ġprojects":7655,"rified":7656,"Ġterrorists":7657,"Ġignored":7658,"Ġhooked":7659,"Ġcrafted":7660,"ĠPhilip":7661,"Ġassassin":7662,"Ġeccentric":7663,"wy":7664,"Ġwra":7665,"Ġfinger":7666,"itar":7667,"Ġnotch":7668,"ĠWitch":7669,"Ġunpleasant":7670,"Ġdecl":7671,"Ġnowadays":7672,"Ġtrite":7673,"ĠWelles":7674,"Ġmiles":7675,"ĠHammer":7676,"Ġinterpretation":7677,"Ġvulner":7678,"Ġcannibal":7679,"Ġvenge":7680,"too":7681,"Ġwann":7682,"athy":7683,"stop":7684,"Ġsevent":7685,"rial":7686,"ĠCop":7687,"ĠHann":7688,"ĠHBO":7689,"ulated":7690,"Ġalbeit":7691,"ĠLake":7692,"Ġtwins":7693,"ĠAlien":7694,"Ġenjoyment":7695,"Ġshoes":7696,"Ġconscious":7697,"ĠClaire":7698,"Ġsidekick":7699,"Ġimportantly":7700,"ological":7701,"Ġbroadcast":7702,"Ġlogical":7703,"ĠREALLY":7704,"Ke":7705,"US":7706,"rust":7707,"rum":7708,"va":7709,"Ġmaid":7710,"Ġbird":7711,"asha":7712,"ĠTCM":7713,"ĠSPOILERS":7714,"amy":7715,"pel":7716,"ĠLane":7717,"Ġmechan":7718,"ĠKer":7719,"ĠUN":7720,"Ġsexually":7721,"Ġappearances":7722,"!!!!!!!!":7723,"ĠBarrymore":7724,"ĠCampbell":7725,"ĠVirgin":7726,"Ġenemies":7727,"Ġwrest":7728,"asion":7729,"ĠSuch":7730,"ĠHot":7731,"ĠPoor":7732,"ĠFle":7733,"Ġwheel":7734,"Ġruth":7735,"ĠKurt":7736,"Ġramp":7737,"Ġcountless":7738,"Ġstrangely":7739,"Ġengine":7740,"Ġcombat":7741,"ĠBerg":7742,"Ġambig":7743,"Ġmiserable":7744,"bet":7745,"fight":7746,"Ġeager":7747,"Ġselling":7748,"ĠSid":7749,"ĠCome":7750,"ifically":7751,"Ġintention":7752,"Ġwatches":7753,"ĠKrist":7754,"arer":7755,"ava":7756,"ographic":7757,"Ġgradu":7758,"Ġtalked":7759,"196":7760,"Ġnonetheless":7761,"Ġmentally":7762,"ĠLouise":7763,"Ġsuspects":7764,"Ġreplaced":7765,"Ġindividuals":7766,"Ġmelodramatic":7767,"Ġdaily":7768,"ĠMiike":7769,"Ġpseudo":7770,"(..":7771,"Having":7772,"ito":7773,"ĠBuck":7774,"ĠCa":7775,"iffe":7776,"Ġperpet":7777,"Ġchilling":7778,"Ġtrial":7779,"gger":7780,"Ġcaric":7781,"Ġmiscast":7782,"Ġstronger":7783,"ĠChristie":7784,"ĠBrid":7785,"Ġresponse":7786,"Ġautom":7787,"Ġrequire":7788,"Ġessence":7789,"Ġresembles":7790,"ĠfiancÃ©":7791,"ĠWere":7792,"aga":7793,"ophy":7794,"ĠFant":7795,"ĠNob":7796,"Ġcance":7797,"igan":7798,"ĠKiller":7799,"Ġpreach":7800,"Ġfarce":7801,"Ġcarn":7802,"Ġforgive":7803,"ĠIII":7804,"ĠEmily":7805,"Ġmedium":7806,"ĠRogers":7807,"Ġcardboard":7808,"ef":7809,"ĠWolf":7810,"Ġsaves":7811,"Ġhorrend":7812,"Ġtales":7813,"onym":7814,"Ġgroups":7815,"Ġpopulation":7816,"ĠBenj":7817,"Ġinvestigate":7818,"ĠSuperman":7819,"ĠAustralia":7820,"ĠReno":7821,"Ġsubsequent":7822,"rer":7823,"atra":7824,"leg":7825,"ĠAw":7826,"inds":7827,"Ġlovable":7828,"Ġblank":7829,"Ġmaker":7830,"weight":7831,"Ġdarkness":7832,"oubted":7833,"Ġsecrets":7834,"gypt":7835,"Ġerrors":7836,"Ġimmig":7837,"Ġunbelievably":7838,"Ġafford":7839,"Ġburst":7840,"Ġalcohol":7841,"Ġunforgettable":7842,"Ġbackdrop":7843,"fact":7844,"video":7845,"Ġwack":7846,"Ġgift":7847,"ĠTen":7848,"ouses":7849,"Ġcharacterization":7850,"Ġtraum":7851,"ĠSoon":7852,"Ġcreation":7853,"Ġcreators":7854,"Ġplanning":7855,"Ġdollar":7856,"Ġwalls":7857,"Ġspecific":7858,"Ġhundreds":7859,"En":7860,"hi":7861,"la":7862,"Ġegg":7863,"Ġupper":7864,"ĠMAN":7865,"ellar":7866,"angle":7867,"Ġappearing":7868,"Ġdrivel":7869,"Ġmedical":7870,"Ġbusy":7871,"shot":7872,"Ġhighlights":7873,"ĠBaby":7874,"iber":7875,"po":7876,"yc":7877,"Ġtow":7878,"Ġguts":7879,"eturn":7880,"ĠAward":7881,"ĠBBC":7882,"ĠCher":7883,"ĠLenny":7884,"isted":7885,"redict":7886,"Ġpretend":7887,"Ġblast":7888,"onson":7889,"Ġpointed":7890,"ĠDefinitely":7891,"Ġgeneric":7892,"Ġtransfer":7893,"Ġproducing":7894,"ĠDragon":7895,"Ġmadness":7896,"Ġachieved":7897,"Ġoccurs":7898,"Ġjumping":7899,"Ġbullet":7900,"Ġsacrific":7901,"ĠObviously":7902,"Ġsuffered":7903,"EL":7904,"Qu":7905,"Tom":7906,"Ġdrown":7907,"hos":7908,"Ġhung":7909,"ĠCould":7910,"ĠPretty":7911,"ĠFather":7912,"Ġorphan":7913,"Ġload":7914,"Ġmaniac":7915,"Ġshower":7916,"Ġimit":7917,"Ġfriendly":7918,"Its":7919,"ograph":7920,"ovich":7921,"Ġdetect":7922,"ĠReal":7923,"Ġhopefully":7924,"ĠShort":7925,"Ġofficers":7926,"Ġhype":7927,"Ġmerit":7928,"Ġdubbing":7929,"ĠCinema":7930,"Ġconspiracy":7931,"ĠMitchum":7932,"SS":7933,"Too":7934,"gle":7935,"gments":7936,"ko":7937,"rity":7938,"icing":7939,"leading":7940,"Ġwebs":7941,"ĠWard":7942,"ĠFin":7943,"Ġmeasure":7944,"ella":7945,"Ġnevertheless":7946,"Ġcomedian":7947,"Ġcareers":7948,"oilers":7949,"ĠIndeed":7950,"Ġscientists":7951,"Ġghosts":7952,"Ġrevelation":7953,"oubtedly":7954,"?),":7955,"ipe":7956,"pse":7957,"Ġtheory":7958,"isation":7959,"Ġbust":7960,"enz":7961,"Ġgather":7962,"Ġnail":7963,"Ġstaff":7964,"ĠHud":7965,"ĠWI":7966,"ĠFR":7967,"Ġprecise":7968,"Ġharder":7969,"Ġlimit":7970,"Ġdrunken":7971,"ĠMusic":7972,"series":7973,"Ġbreasts":7974,"Ġrobbery":7975,"Ġcousin":7976,"Ġexercise":7977,"pieces":7978,"ndy":7979,"Ġtool":7980,"Ġpubl":7981,"icient":7982,"ĠSouthern":7983,"ĠPier":7984,"ĠEgypt":7985,"ĠKaren":7986,"ipes":7987,"Ġracial":7988,"acted":7989,"uffy":7990,"Ġstring":7991,"Ġswitch":7992,"Ġcausing":7993,"Ġnarrator":7994,"Ġoccurred":7995,"Ġsacrifice":7996,"Ġvirgin":7997,"Ġincompet":7998,"corn":7999,"ias":8000,"Ġfrench":8001,"Ġgif":8002,"quer":8003,"force":8004,"Ġtwin":8005,"Ġresour":8006,"Ġrelax":8007,"ĠBeck":8008,"Ġdramas":8009,"Ġsuperficial":8010,"olds":8011,"ĠHero":8012,"ypse":8013,"Ġfourth":8014,"OME":8015,"ĠArnold":8016,"Where":8017,"burn":8018,"Ġwishes":8019,"Ġreleas":8020,"ĠBush":8021,"Ġalb":8022,"ortion":8023,"ĠGay":8024,"ardo":8025,"Ġrealise":8026,"Ġflu":8027,"ĠVen":8028,"anson":8029,"Ġdifferences":8030,"Ġpossibility":8031,"ĠHarrison":8032,"193":8033,"Ġrevealing":8034,"ĠActing":8035,"ĠRomero":8036,"ocalypse":8037,"Ġaforementioned":8038,"Com":8039,"Mr":8040,"Ġtall":8041,"eron":8042,"Ġmic":8043,"Ġlur":8044,"Ġnut":8045,"Ġreaches":8046,"ado":8047,"cean":8048,"rier":8049,"Ġthread":8050,"ĠCas":8051,"ĠHack":8052,"ĠRome":8053,"Ġdisease":8054,"ucker":8055,"ĠSpain":8056,"Ġpasses":8057,"unky":8058,"Ġsatir":8059,"Ġdocumentaries":8060,"Ġbuilds":8061,"Ġlandscape":8062,"Ġstrip":8063,"Ġtraveling":8064,"ĠRobinson":8065,"ĠRocky":8066,"Ġfortune":8067,"Ġwondered":8068,"David":8069,"James":8070,"bra":8071,"da":8072,"such":8073,"Ġtail":8074,"itches":8075,"Ġdust":8076,"sex":8077,"Ġstorm":8078,"ĠSyl":8079,"ĠBald":8080,"ĠHills":8081,"Ġwhoever":8082,"ĠGab":8083,"Ġprops":8084,"Ġrow":8085,"Ġgenerous":8086,"ĠConf":8087,"Ġattraction":8088,"Ġbriefly":8089,"Ġdecisions":8090,"Ġcasual":8091,"Ġfifteen":8092,"hobic":8093,"ĠAlfred":8094,"nic":8095,"sho":8096,"Ġinfect":8097,"verted":8098,"idel":8099,"Ġanal":8100,"ĠBon":8101,"ĠCub":8102,"ĠHas":8103,"Ġkung":8104,"ĠPam":8105,"plots":8106,"Ġourselves":8107,"Ġmisunder":8108,"club":8109,"Ġobser":8110,"Ġtreasure":8111,"Ġmeaningful":8112,"hology":8113,"ĠTechn":8114,"Se":8115,"ket":8116,"nest":8117,"Ġfed":8118,"Ġfoo":8119,"happy":8120,"cend":8121,"ĠBurt":8122,"ifting":8123,"ements":8124,"Ġextended":8125,"udos":8126,"erek":8127,"ĠVeg":8128,"Ġslick":8129,"Ġ21":8130,"ecess":8131,"Ġreturning":8132,"ĠCheck":8133,"Ġidiots":8134,"Ġlibrary":8135,"ĠBergman":8136,"sur":8137,"Ġmira":8138,"Ġstead":8139,"Ġalright":8140,"Ġrushed":8141,"elli":8142,"ogan":8143,"Ġrive":8144,"aughters":8145,"ĠAlong":8146,"Ġcompassion":8147,"Ġmenacing":8148,"Ġindul":8149,"umentary":8150,"Ġpatri":8151,"Ġridiculously":8152,"Ġhoped":8153,"Ġmeaningless":8154,"ĠWhit":8155,"ACK":8156,"ĠDaniels":8157,"Ġthousand":8158,"ĠNorma":8159,"minded":8160,"Ġuniform":8161,"ĠZombie":8162,"AK":8163,"Ġsons":8164,"Ġwhis":8165,"atter":8166,"Ġheight":8167,"Ġsends":8168,"ĠMeg":8169,"ĠWong":8170,"Ġcomfort":8171,"acked":8172,"everly":8173,"ĠBlock":8174,"Ġstranger":8175,"Ġillustr":8176,"Ġflawless":8177,"Ġcompetition":8178,"Though":8179,"ĠNazis":8180,"Ġreduced":8181,"ĠSwedish":8182,"Ġtoilet":8183,"Ġintensity":8184,"wyck":8185,"Bad":8186,"rase":8187,"tain":8188,"vall":8189,"Ġ=":8190,"Ġwicked":8191,"Ġetern":8192,"Ġnerv":8193,"ilton":8194,"Ġasse":8195,"ĠCare":8196,"ĠDave":8197,"usions":8198,"aka":8199,"Ġdiff":8200,"ERE":8201,"Ġlessons":8202,"ĠForce":8203,"Ġcollabor":8204,"Ġadmitted":8205,"Ġprogresses":8206,"Ġsteps":8207,"Ġencounters":8208,"ffee":8209,"Ġwonders":8210,"ĠJonathan":8211,"Ġtorment":8212,"Ġtremendous":8213,"Ġelderly":8214,"Ġportrait":8215,"Ġlifestyle":8216,"Ġdub":8217,"ĠWr":8218,"Ġalike":8219,"aste":8220,"Ġmanager":8221,"oren":8222,"Ġabsence":8223,"orky":8224,"olutely":8225,"Ġbrilliance":8226,"Ġproviding":8227,"Ġengaged":8228,"Ġconversations":8229,"ĠDamme":8230,"Ġisolated":8231,"ploitation":8232,"dated":8233,"maybe":8234,"erning":8235,"Ġfu":8236,"only":8237,"Ġpig":8238,"Ġinher":8239,"Ġrelevant":8240,"seen":8241,"ĠBambi":8242,"ĠHad":8243,"Ġdoomed":8244,"ĠPant":8245,"ĠRes":8246,"ĠRud":8247,"ĠGen":8248,"ĠGRE":8249,"Ġreluct":8250,"Ġscripted":8251,"ĠReg":8252,"Ġthrills":8253,"Ġrobots":8254,"blood":8255,"ĠMuslim":8256,"Ġcowboy":8257,"ĠGregory":8258,"ees":8259,"Ġgall":8260,"idly":8261,"rior":8262,"ĠHolden":8263,"aks":8264,"Ġfuneral":8265,"rance":8266,"Ġhorrid":8267,"Ġhorrors":8268,"because":8269,"Ġterrifying":8270,"Ġdirectorial":8271,"Ġdialogues":8272,"Ġrestra":8273,"Ġhatred":8274,"194":8275,"ĠGrace":8276,"Ġcircus":8277,"Ġurge":8278,"Ġadequate":8279,"Ġfinancial":8280,"Ġruthless":8281,"movies":8282,"Ġtie":8283,"ida":8284,"ĠLisa":8285,"umsy":8286,"Ġnoble":8287,"ablish":8288,"Ġargue":8289,"Ġaging":8290,"eps":8291,"cca":8292,"Ġflag":8293,"Ġgenres":8294,"Ġletter":8295,"maker":8296,"Ġpolitically":8297,"Ġmistaken":8298,"Ġwesterns":8299,"Donald":8300,"Ġburning":8301,"Ġcalm":8302,"Ġcharismatic":8303,"Ġmountain":8304,"Ġstretch":8305,"Ġdeliberately":8306,"God":8307,"works":8308,"Ġsings":8309,"Ġfart":8310,"Ġbott":8311,"Ġcere":8312,"kel":8313,"ĠBall":8314,"ĠPink":8315,"ĠRoth":8316,"ĠGive":8317,"Ġworried":8318,"ĠElli":8319,"Ġprec":8320,"Ġprecious":8321,"Ġspots":8322,"Ġsett":8323,"Ġsmoke":8324,"Ġbucks":8325,"veloped":8326,"Ġillness":8327,"ĠBobby":8328,"ĠSeriously":8329,"Ġaffection":8330,"ĠHardy":8331,"Ġticket":8332,"Ġholiday":8333,"Ġargument":8334,"ulsive":8335,"onestly":8336,"ĠRalph":8337,"!.":8338,"OP":8339,"Ġsand":8340,"Ġsouth":8341,"inging":8342,"oric":8343,"Ġnun":8344,"ctors":8345,"Ġstole":8346,"ĠDutch":8347,"Ġfrustrated":8348,"essed":8349,"ĠPort":8350,"Ġdisj":8351,"Ġspooky":8352,"Ġshall":8353,"school":8354,"incess":8355,"ĠUncle":8356,"Ġannoyed":8357,"ĠWoods":8358,"minute":8359,"Ġtravels":8360,"ĠBoys":8361,"mission":8362,"ĠPacino":8363,"Ġcameras":8364,"wife":8365,"Ġtons":8366,"inci":8367,"oral":8368,"atha":8369,"hattan":8370,"Ġnuts":8371,"Ġbew":8372,"Ġheaven":8373,"Ġhitting":8374,"Ġhorses":8375,"ĠCur":8376,"ĠLiving":8377,"ĠFOR":8378,"ĠJenny":8379,"Ġunre":8380,"Ġfears":8381,"Ġfaced":8382,"Ġclock":8383,"izable":8384,"Ġcontrib":8385,"Ġhappiness":8386,"Ġtriumph":8387,"Ġstudios":8388,"Ġdrags":8389,"ĠLeigh":8390,"Ġadvance":8391,"Ġpicking":8392,"Ġundoubtedly":8393,"Ġblend":8394,"Ġfolk":8395,"Ġoffended":8396,"Ge":8397,"say":8398,"ĠHart":8399,"Ġchasing":8400,"Ġrhy":8401,"Ġunoriginal":8402,"!!!!!":8403,"ortunately":8404,"Ġlacked":8405,"Ġexposed":8406,"Ġpredecess":8407,"Ġraped":8408,"ĠErrol":8409,"ĠFrancisco":8410,"Ġgradually":8411,"bu":8412,"gling":8413,"Ġ..":8414,"Ġmal":8415,"Ġinform":8416,"Ġnurse":8417,"Ġstaged":8418,"road":8419,"emark":8420,"Ġabdu":8421,"Ġgrotes":8422,"Ġinteraction":8423,"Ġadmira":8424,"Ġgangsters":8425,"urious":8426,"chers":8427,"Ġrepresents":8428,"banks":8429,"Ġunwatchable":8430,"ĠWaters":8431,"Ġliberal":8432,"Perhaps":8433,"ĠHughes":8434,"\"...":8435,"mail":8436,"nan":8437,"Ġsill":8438,"Ġwet":8439,"Ġfired":8440,"ouch":8441,"ĠTall":8442,"ĠTru":8443,"ĠCind":8444,"Ġareas":8445,"ĠWow":8446,"ĠDawn":8447,"agine":8448,"Ġfacing":8449,"Ġdisplays":8450,"cia":8451,"Ġprince":8452,"ĠGeor":8453,"headed":8454,"ĠMorris":8455,"Ġloser":8456,"Ġdigital":8457,"ĠStanwyck":8458,"Ġresemblance":8459,"Ġelectric":8460,"ĠSanta":8461,"Ġdynamic":8462,"ĠCurtis":8463,"ĠHudson":8464,"brow":8465,"born":8466,"ds":8467,"love":8468,"Ġwont":8469,"eric":8470,"Ġmont":8471,"Ġmoon":8472,"ĠSub":8473,"Ġnotes":8474,"uloid":8475,"elve":8476,"Ġmyst":8477,"Ġclues":8478,"Ġtender":8479,"ĠAlmost":8480,"Ġsuburb":8481,"Ġbasement":8482,"Ġdialogs":8483,"Ġgrab":8484,"ĠScream":8485,"Ġsadness":8486,"ĠBronson":8487,"Ġmarks":8488,"Ġattracted":8489,"ĠCraig":8490,"Ġ1990":8491,"Ġsympath":8492,"Ġbullets":8493,"Ġreactions":8494,"Ġarrested":8495,"Ġdivorce":8496,"zan":8497,"Ġwrap":8498,"Ġfoul":8499,"Ġbog":8500,"itter":8501,"itudes":8502,"ieve":8503,"ĠTimes":8504,"ĠOwen":8505,"Ġshine":8506,"Ġagreed":8507,"Ġinco":8508,"ocative":8509,"ibl":8510,"Ġhardcore":8511,"Ġcoffee":8512,"Ġliking":8513,"Ġ45":8514,"Ġtypically":8515,"Ġhonesty":8516,"ĠAnton":8517,"Ġvampires":8518,"Ġlabel":8519,"ixture":8520,"ĠJessica":8521,"ĠHitler":8522,"Ġwannabe":8523,"Pe":8524,"end":8525,"Ġcorn":8526,"Ġdire":8527,"uristic":8528,"Ġattend":8529,"ako":8530,"ĠPry":8531,"Ġrage":8532,"Ġattached":8533,"Ġwarn":8534,"Ġcreativity":8535,"ormal":8536,"makers":8537,"Ġdepressed":8538,"Ġpolitic":8539,"Ġstrikes":8540,"onica":8541,"Ġrecognition":8542,"Ġrequires":8543,"Ġcontinued":8544,"Ġphotographed":8545,"Ġexaggerated":8546,"aver":8547,"iors":8548,"kish":8549,"Ġtires":8550,"itchen":8551,"ĠTR":8552,"ĠDoll":8553,"Ġdear":8554,"ĠPay":8555,"ortal":8556,"ĠFinal":8557,"Ġintent":8558,"Ġafterwards":8559,"Ġcouples":8560,"lied":8561,"Ġconserv":8562,"Ġcameos":8563,"Ġpotentially":8564,"ARD":8565,"Ġsilence":8566,"Ġadapted":8567,"Ġintrigue":8568,"ĠHighly":8569,"Death":8570,"Ġstinker":8571,"Ġingen":8572,"Ġcaptivating":8573,"Ġhelicopter":8574,"watch":8575,"Ġinacc":8576,"raw":8577,"ĠWomen":8578,"Ġouts":8579,"ĠEventually":8580,"Ġclumsy":8581,"Ġbelieving":8582,"Ġmessages":8583,"Ġconventional":8584,"Ġcorpse":8585,"Ġiron":8586,"Ġsubjects":8587,"Ġsigns":8588,"Ġoddly":8589,"Still":8590,"Ġarrival":8591,"ĠProbably":8592,"ĠMurray":8593,"Ġsurrounded":8594,"Ġhunter":8595,"Ġimplausible":8596,"Ġphilosophy":8597,"Ġastonishing":8598,"60":8599,"Ġsam":8600,"Ġmes":8601,"Ġcared":8602,"order":8603,"Ġbears":8604,"ĠMother":8605,"Ġabys":8606,"inding":8607,"ango":8608,"Ġenjoys":8609,"aware":8610,"Ġsmaller":8611,"Ġpatient":8612,"Ġhilariously":8613,"Ġunfair":8614,"Ġsentence":8615,"ĠGermans":8616,"Ġestate":8617,"ĠWatson":8618,"Ġunfolds":8619,"Ġnervous":8620,"Hey":8621,"fast":8622,"gal":8623,"Ġtoy":8624,"Ġdaring":8625,"Ġinapp":8626,"Ġnine":8627,"ĠAbs":8628,"Ġnotion":8629,"ĠCase":8630,"ĠHoff":8631,"elson":8632,"Ġaltogether":8633,"ĠNet":8634,"Ġnose":8635,"ĠKay":8636,"ĠKnow":8637,"izations":8638,"umbles":8639,"Ġdarker":8640,"Ġengross":8641,"Ġscreams":8642,"Ġcommercials":8643,"Ġbreathtaking":8644,"Ġsymbolism":8645,"Ġracism":8646,"human":8647,"La":8648,"Sha":8649,"cont":8650,"jo":8651,"Ġtaught":8652,"Ġpin":8653,"arrow":8654,"Ġgimm":8655,"ieu":8656,"Ġthief":8657,"ĠBros":8658,"ifying":8659,"ĠFurther":8660,"izard":8661,"Ġtrade":8662,"ocaly":8663,"Ġtrio":8664,"Ġkidding":8665,"ĠThink":8666,"Ġheroic":8667,"Ġdeveloping":8668,"Ġcorner":8669,"eyed":8670,"Ġregardless":8671,"ĠStreep":8672,"Ġescaped":8673,"Ġhunting":8674,"ĠBernard":8675,"Ġcontroversial":8676,"ucci":8677,"Ġdisjointed":8678,"')":8679,"Che":8680,"aign":8681,"encies":8682,"Ġpants":8683,"atched":8684,"Ġstone":8685,"ĠCold":8686,"ĠLem":8687,"Ġoutcome":8688,"ĠNiro":8689,"Ġslice":8690,"Ġhumili":8691,"ĠWhatever":8692,"Ġgloss":8693,"ĠSomeone":8694,"Ġlisted":8695,"ĠWarren":8696,"Ġswear":8697,"Ġsimilarities":8698,"Ġ2006":8699,"ĠComedy":8700,"Ġsuggested":8701,"ĠGirls":8702,"Ġproceedings":8703,"Ang":8704,"got":8705,"Ã¨":8706,"Ġtab":8707,"Ġdom":8708,"aled":8709,"ilted":8710,"ĠDerek":8711,"aki":8712,"ĠFire":8713,"ĠFields":8714,"Ġdismiss":8715,"Ġfunction":8716,"Ġriver":8717,"Ġabsor":8718,"Ġglamor":8719,"idering":8720,"Ġhates":8721,"Ġmotives":8722,"Ġprogress":8723,"ĠJuliet":8724,"Ġtrademark":8725,"Ġceleb":8726,"Ġguests":8727,"Ġsloppy":8728,"Ġenormous":8729,"great":8730,"ilarly":8731,"ĠSen":8732,"Ġnotorious":8733,"unning":8734,"Ġcomfortable":8735,"ĠRow":8736,"Ġamuse":8737,"ĠHey":8738,"Ġconsum":8739,"ERS":8740,"ĠHarvey":8741,"Ġ2005":8742,"Ġredemption":8743,"rolled":8744,"Ġachievement":8745,"ĠBetty":8746,"Ġbathroom":8747,"Ġscheme":8748,"Ġinstallment":8749,"redictable":8750,"Ġaunt":8751,"Ġwake":8752,"Ġduty":8753,"Ġlake":8754,"ĠIan":8755,"ĠHist":8756,"Ġplausible":8757,"ĠFall":8758,"ĠFell":8759,"ĠGal":8760,"ivan":8761,"Ġleaders":8762,"Ġworthless":8763,"Ġinsert":8764,"ographed":8765,"Ġpopcorn":8766,"Ġdevast":8767,"ONG":8768,"ĠFilms":8769,"Ġrecorded":8770,"Ġsubtlety":8771,"Ġunexpl":8772,"ĠScience":8773,"Ġcelluloid":8774,"Ġprimarily":8775,"Ġmaintain":8776,"ĠFairbanks":8777,"Ġelaborate":8778,"Ġhorrendous":8779,"Ġgrotesque":8780,"dri":8781,"mit":8782,"ĠMu":8783,"ĠCron":8784,"Ġrural":8785,"ĠEp":8786,"icking":8787,"Ġendings":8788,"Ġoverdone":8789,"Ġspare":8790,"anged":8791,"Ġgotta":8792,"Ġdistance":8793,"Ġsadd":8794,"Ġparan":8795,"Ġdevoid":8796,"ivalent":8797,"Ġchecking":8798,"Ġdiscussion":8799,"ĠLawrence":8800,"Ġvulgar":8801,"Ġchallenging":8802,"Ġdignity":8803,"Ġmetaphor":8804,"penter":8805,"Finally":8806,"paced":8807,"Ġbeats":8808,"ularly":8809,"ĠRain":8810,"Ġunsett":8811,"Ġimpe":8812,"Ġresur":8813,"Ġrelent":8814,"astern":8815,"Ġdefense":8816,"ĠThird":8817,"vised":8818,"Ġsuspicious":8819,"Ġinspiring":8820,"Ġrespond":8821,"Ġdelivering":8822,"Ġclothing":8823,"ĠPolice":8824,"Ġresolution":8825,"Ġendearing":8826,"Ġinventive":8827,"Ġjealous":8828,"Ġphilosophical":8829,"AST":8830,"gain":8831,"Ġtad":8832,"Ġax":8833,"Ġack":8834,"Ġinane":8835,"ases":8836,"ĠMason":8837,"ĠCy":8838,"ĠWater":8839,"ĠWalt":8840,"ĠNational":8841,"ption":8842,"Ġagrees":8843,"Ġparties":8844,"ĠClub":8845,"Ġbrand":8846,"Ġprompt":8847,"Ġsilver":8848,"ĠPrice":8849,"ĠProfess":8850,"ĠStanley":8851,"Ġbirthday":8852,"Ġillegal":8853,"Night":8854,"Other":8855,"pr":8856,"rr":8857,"uity":8858,"Ġsouthern":8859,"Ġbes":8860,"Ġdre":8861,"Ġego":8862,"ĠHoll":8863,"Ġdoz":8864,"ĠRaj":8865,"ĠJa":8866,"Ġtimeless":8867,"Ġovers":8868,"Ġwhereas":8869,"Ġcoherent":8870,"ĠSov":8871,"ĠClaud":8872,"Ġdefinite":8873,"Ġdemands":8874,"Ġdealt":8875,"Ġexplaining":8876,"Ġhostage":8877,"Ġdimensional":8878,"ĠRoad":8879,"hopath":8880,"ĠMaggie":8881,"ĠCameron":8882,"ĠAmazon":8883,"Ġblatant":8884,"Ġencoura":8885,"Ġcitizens":8886,"ĠBenjamin":8887,"Ġacknow":8888,"HING":8889,"See":8890,"Ye":8891,"ĠTrue":8892,"Ġthrew":8893,"pered":8894,"ĠPan":8895,"Ġadol":8896,"Ġguide":8897,"Ġblowing":8898,"Ġperforming":8899,"Ġthoughtful":8900,"ggy":8901,"Ġclassical":8902,"Ġheaded":8903,"Ġeasier":8904,"ĠArm":8905,"Ġtransformation":8906,"Ġopinions":8907,"Ġdetailed":8908,"Ġodds":8909,"ĠHolocaust":8910,"Ġbeneath":8911,"Ġbenefit":8912,"High":8913,"Very":8914,"met":8915,"inate":8916,"Ġsen":8917,"Ġward":8918,"Ġcards":8919,"orney":8920,"athetic":8921,"ĠSel":8922,"ĠHung":8923,"ĠLight":8924,"ĠGre":8925,"ĠGang":8926,"Ġleague":8927,"ĠEllen":8928,"ĠOz":8929,"ĠKub":8930,"aval":8931,"Ġgrasp":8932,"icularly":8933,"Ġaddict":8934,"ĠClay":8935,"195":8936,"Ġbrains":8937,"Ġ2001":8938,"Ġnearby":8939,"Ġutil":8940,"Ġsentiment":8941,"Ġpersons":8942,"Ġaffected":8943,"ĠDuvall":8944,"lotte":8945,"every":8946,"lines":8947,"pre":8948,"Ã¡":8949,"Ġsarc":8950,"Ġfitting":8951,"Ġfighter":8952,"Ġpitch":8953,"ĠAmy":8954,"ĠMade":8955,"venile":8956,"ĠNancy":8957,"Ġcovers":8958,"rowing":8959,"ommended":8960,"Ġcomplaint":8961,"Ġcampaign":8962,"minator":8963,"Ġpsychotic":8964,"Ġprimary":8965,"Ġorders":8966,"Ġpossessed":8967,"Ġhypnot":8968,"ĠCatholic":8969,"Ġingred":8970,"ĠWalker":8971,"ĠBeatles":8972,"Ġcrisis":8973,"Ġirrelevant":8974,"ĠHoffman":8975,"SPOILER":8976,"ez":8977,"ois":8978,"oner":8979,"ĠTal":8980,"ĠNative":8981,"Ġenters":8982,"Ġunderstandable":8983,"Ġmonolog":8984,"Ġdevoted":8985,"Ġphoto":8986,"ĠDoctor":8987,"Ġequip":8988,"Ġcurse":8989,"Ġprofession":8990,"Ġdisturbed":8991,"ĠMagn":8992,"ĠJews":8993,"Ġdistracting":8994,"Ġinhabit":8995,"Dead":8996,"bby":8997,"Ġsou":8998,"Ġsits":8999,"Ġcried":9000,"icol":9001,"Ġhire":9002,"riz":9003,"ĠMall":9004,"ĠHind":9005,"ĠWol":9006,"ĠPR":9007,"Ġuneven":9008,"ĠEN":9009,"Ġendure":9010,"ĠYu":9011,"Ġtracks":9012,"ossibly":9013,"Ġmisses":9014,"lander":9015,"Ġhopeless":9016,"ĠSeason":9017,"Ġmorality":9018,"Ġsolution":9019,"********":9020,"ĠGraham":9021,"Ġestablish":9022,"Ġremarkably":9023,"Ġphotographer":9024,"Ġhypoc":9025,"ĠJesse":9026,"ĠArab":9027,"Ġstrictly":9028,"utherland":9029,"ĠPotter":9030,"dis":9031,"lad":9032,"Ġwest":9033,"Ġcake":9034,"ĠAM":9035,"Ġexhib":9036,"ĠRic":9037,"andal":9038,"ĠJord":9039,"ĠJune":9040,"Ġshelf":9041,"never":9042,"Ġsail":9043,"Ġaccused":9044,"Ġreads":9045,"Ġbold":9046,"rosawa":9047,"aneously":9048,"Ġportion":9049,"Ġmonot":9050,"Ġstaying":9051,"Ġgrandmother":9052,"Ġpsychopath":9053,"Ġexploit":9054,"Ġamounts":9055,"Ġdancer":9056,"Ġtrailers":9057,"Ġkicked":9058,"Ġpractice":9059,"Ġdimension":9060,"Ġpressure":9061,"Pro":9062,"uable":9063,"Ġmixture":9064,"Ġdare":9065,"utt":9066,"ĠCos":9067,"ĠWed":9068,"ĠEX":9069,"Ġquit":9070,"Ġdisli":9071,"Ġdisplayed":9072,"ĠHeart":9073,"cience":9074,"Ġsurpass":9075,"Ġglory":9076,"Ġresulting":9077,"volta":9078,"Ġslightest":9079,"Ġscientific":9080,"Ġreceive":9081,"Ġbrutally":9082,"ĠNevertheless":9083,"Ġfrustrating":9084,"rehensible":9085,"Ġwebsite":9086,"Act":9087,"Ġ**":9088,"ority":9089,"Ġpleased":9090,"stra":9091,"ĠTiger":9092,"Ġje":9093,"Ġcomics":9094,"ĠPL":9095,"Ġshirt":9096,"Ġclosed":9097,"...)":9098,"arson":9099,"Ġroot":9100,"Ġpartners":9101,"Ġbride":9102,"Ġslave":9103,"Ġincl":9104,"Ġcoast":9105,"Ġvisiting":9106,"ĠMyers":9107,"Ġcommented":9108,"Ġtransition":9109,"ĠThompson":9110,"Ġthankfully":9111,"ĠCostello":9112,"gio":9113,"lest":9114,"escent":9115,"Ġbefriend":9116,"Ġscores":9117,"ĠLang":9118,"ĠRather":9119,"pled":9120,"Ġrocks":9121,"thriller":9122,"eremy":9123,"Ġsaf":9124,"Ġcontained":9125,"Ġ192":9126,"ission":9127,"Ġshortly":9128,"Ġuseful":9129,"ugust":9130,"Ġmurderous":9131,"Ġconstructed":9132,"ĠPeck":9133,"ĠPrincess":9134,"Ġbombs":9135,"Ġintrigued":9136,"Ġblockbuster":9137,"Ġproceeds":9138,"ĠColumbo":9139,"Brazil":9140,"pha":9141,"Ġ_":9142,"Ġwig":9143,"isy":9144,"onne":9145,"irley":9146,"ĠBattle":9147,"ĠDown":9148,"ĠJake":9149,"Ġagg":9150,"Ġriot":9151,"Ġappalling":9152,"Ġnightclub":9153,"Ġparad":9154,"Ġdevices":9155,"Ġsurvived":9156,"Star":9157,"ĠExcept":9158,"udden":9159,"Ġdraws":9160,"Ġlegal":9161,"ĠSherlock":9162,"ĠEVERY":9163,"ĠArgento":9164,"Ġinnovative":9165,"\";":9166,"free":9167,"gr":9168,"master":9169,"Ġdaughters":9170,"Ġgest":9171,"ĠAT":9172,"ĠDirect":9173,"ĠReturn":9174,"ĠJol":9175,"Ġdownhill":9176,"ĠDev":9177,"ĠChase":9178,"Ġfancy":9179,"Ġconcerning":9180,"Ġeighties":9181,"Ġconsistently":9182,"Ġduo":9183,"ĠIreland":9184,"Ġsolely":9185,"ĠCrystal":9186,"Ġ[":9187,"Ġought":9188,"itual":9189,"Ġdile":9190,"aser":9191,"Ġgamb":9192,"also":9193,"Ġreached":9194,"aman":9195,"Ġweb":9196,"terday":9197,"ĠCow":9198,"ĠCrow":9199,"ĠHum":9200,"ĠPy":9201,"ĠPersonally":9202,"opard":9203,"uments":9204,"ĠJamie":9205,"Ġprejud":9206,"Ġcontrad":9207,"othic":9208,"issa":9209,"ĠChainsaw":9210,"ĠNeed":9211,"Ġpulling":9212,"check":9213,"uddled":9214,"Ġlabor":9215,"ĠRaymond":9216,"Ġformulaic":9217,"Ġchoreography":9218,"Ġinvolvement":9219,"Ġexchange":9220,"ĠGriffith":9221,"Ġarrogant":9222,"Ġthroat":9223,"ĠBaldwin":9224,"\"-":9225,"itled":9226,"ĠTar":9227,"Ġrebel":9228,"entin":9229,"Ġstir":9230,"again":9231,"Ġvoy":9232,"Ġwhim":9233,"ĠKo":9234,"Ġpartly":9235,"Ġconclud":9236,"Ġhearts":9237,"ĠAtt":9238,"charact":9239,"Ġsuperbly":9240,"ĠGolden":9241,"Ġwitnessed":9242,"Ġinfluenced":9243,"Ġpassionate":9244,"Ġcustom":9245,"Ġrubber":9246,"Ġequipment":9247,"Peter":9248,"lam":9249,"worthy":9250,"Ġears":9251,"ĠTak":9252,"ĠTop":9253,"ĠCatherine":9254,"ĠLiz":9255,"odge":9256,"Ġarc":9257,"ivable":9258,"Ġtribe":9259,"Ġinstit":9260,"Ġdistingu":9261,"Ġbuildings":9262,"ĠGrade":9263,"Ġprisoner":9264,"ĠMcCart":9265,"Ġgolden":9266,"Ġlifetime":9267,"Ġalternative":9268,"Ġpretending":9269,"William":9270,"Ġpoetry":9271,"ĠPredator":9272,"ĠLOVE":9273,"Ġincoherent":9274,"Paul":9275,"ba":9276,"uelle":9277,"Ġaka":9278,"Ġsust":9279,"Ġsales":9280,"Ġbang":9281,"Ġpant":9282,"Ġpushed":9283,"otal":9284,"chi":9285,"ĠCab":9286,"ĠFiction":9287,"Ġnoise":9288,"Ġperformer":9289,"Ġpride":9290,"Ġhanded":9291,"Ġinstant":9292,"Ġcopies":9293,"ĠManhattan":9294,"mpire":9295,"Ġcenters":9296,"uddies":9297,"Ġbedroom":9298,"Ġloosely":9299,"Ġcurrently":9300,"Ġpurchase":9301,"ĠDiana":9302,"Ġchapter":9303,"hetti":9304,"ĠKurosawa":9305,"Ġimmigrant":9306,"tte":9307,"vor":9308,"stars":9309,"ĠTown":9310,"Ġsticks":9311,"ĠSutherland":9312,"Ġjaw":9313,"Ġcancer":9314,"then":9315,"Ġacclaim":9316,"existent":9317,"ĠZone":9318,"Ġdemons":9319,"ĠAngels":9320,"Ġarrived":9321,"Ġrecognized":9322,"Ġimproved":9323,"Ġsucceeded":9324,"ĠNorman":9325,"ĠErnest":9326,"opsis":9327,"Ġexplosion":9328,"Ġconfrontation":9329,"ĠCentury":9330,"Ġpuzzle":9331,"Ġdemonstrates":9332,"ĠPryor":9333,"Ġinappropriate":9334,"Ġunsettling":9335,"show":9336,"Ġwars":9337,"Ġtom":9338,"lee":9339,"Ġya":9340,"ĠBeverly":9341,"ĠMim":9342,"ĠCho":9343,"agan":9344,"ĠPsy":9345,"ĠFX":9346,"Ġups":9347,"Ġarran":9348,"ensions":9349,"Ġracing":9350,"Ġtrained":9351,"Ġcomposed":9352,"Ġchances":9353,"Ġchannels":9354,"Ġdetract":9355,"Ġtitled":9356,"Ġreceives":9357,"Ġmodels":9358,"ĠJudy":9359,"function":9360,"ĠNEVER":9361,"Ġmagazine":9362,"Ġwacky":9363,"ĠKubrick":9364,"atics":9365,"Ġnause":9366,"ilia":9367,"Ġheat":9368,"Ġstro":9369,"ĠSF":9370,"ĠBugs":9371,"urance":9372,"Ġunit":9373,"gends":9374,"forms":9375,"Ġaudio":9376,"Ġmovements":9377,"ĠAngela":9378,"ĠCorman":9379,"ĠCommun":9380,"ĠRemember":9381,"ĠGibson":9382,"ĠSoviet":9383,"buck":9384,"based":9385,"eer":9386,"non":9387,"Ġtank":9388,"Ġaid":9389,"eson":9390,"Ġindu":9391,"ĠTit":9392,"ĠTry":9393,"Ġforms":9394,"ĠSnow":9395,"Ġhunt":9396,"ĠBry":9397,"ĠMTV":9398,"Ġbutton":9399,"ĠDrew":9400,"agement":9401,"ĠLor":9402,"Ġintim":9403,"Ġrum":9404,"ĠNelson":9405,"ĠEver":9406,"Ġovert":9407,"Ġspoke":9408,"Ġdesired":9409,"Ġrig":9410,"Ġnewly":9411,"Ġfailing":9412,"mares":9413,"Ġpremie":9414,"Ġmusicals":9415,"Ġexplored":9416,"Ġresponsibility":9417,"ĠBerlin":9418,"oopy":9419,"Ġcivilization":9420,"Ġderiv":9421,"Ġearned":9422,"umphrey":9423,"Ġparallel":9424,".*":9425,"Cha":9426,"Than":9427,"des":9428,"eff":9429,"tr":9430,"Ġ;":9431,"Ġgor":9432,"iciously":9433,"rael":9434,"ĠSix":9435,"rip":9436,"ĠBark":9437,"ĠMas":9438,"ĠCIA":9439,"ĠHust":9440,"ĠPen":9441,"ĠNice":9442,"Ġseeks":9443,"ruci":9444,"obi":9445,"Ġsettle":9446,"incingly":9447,"ĠScot":9448,"ancaster":9449,"uracy":9450,"Ġdamage":9451,"ĠGranted":9452,"Ġthreatening":9453,"Ġneighb":9454,"Ġspecifically":9455,"Ġdisappears":9456,"Ġdefend":9457,"Ġstinks":9458,"colm":9459,"ĠCronenberg":9460,"Look":9461,"cult":9462,"Ġtact":9463,"Ġbump":9464,"itched":9465,"Ġpays":9466,"Ġdirt":9467,"ĠTran":9468,"Ġanx":9469,"Ġexotic":9470,"aghetti":9471,"ousing":9472,"ĠLy":9473,"ĠLive":9474,"Ġupl":9475,"ounded":9476,"becca":9477,"Ġattitudes":9478,"Ġtechnically":9479,"Ġangst":9480,"venture":9481,"Ġobserv":9482,"Ġtrees":9483,"Ġsatisfy":9484,"Before":9485,"Ġjuvenile":9486,"Ġcompanion":9487,"ĠBurns":9488,"ĠMargaret":9489,"Queen":9490,"name":9491,"was":9492,"zer":9493,"Ġnomination":9494,"rah":9495,"Ġstellar":9496,"ĠSaw":9497,"ĠBow":9498,"ĠBUT":9499,"ĠCole":9500,"Ġsup":9501,"Ġexter":9502,"ĠPur":9503,"Ġrang":9504,"Ġuser":9505,"Ġadorable":9506,"Ġtrap":9507,"Ġelim":9508,"Ġartific":9509,"Ġlowest":9510,"Ġlackl":9511,"Ġconvict":9512,"Ġinferior":9513,"Ġsenses":9514,"Ġundert":9515,"ĠTravolta":9516,"Ġroller":9517,"Ġunsatisf":9518,"Ġunderstated":9519,"Ġaimed":9520,"Ġvaguely":9521,"Ġpuppet":9522,"conscious":9523,"ĠWallace":9524,"Ġsimplistic":9525,"Ġfooled":9526,"ruciating":9527,"Love":9528,"Richard":9529,"Ter":9530,"Title":9531,"yo":9532,"Ġtame":9533,"imal":9534,"Ġnotably":9535,"ĠCertainly":9536,"Ġplod":9537,"Ġchain":9538,"ĠLow":9539,"ĠRO":9540,"ĠGame":9541,"icken":9542,"ourt":9543,"Ġroof":9544,"Ġunderlying":9545,"Ġgranted":9546,"Ġtrashy":9547,"ggie":9548,"Ġhelpless":9549,"ĠMarx":9550,"ĠBlanc":9551,"ĠLeo":9552,"Ġequivalent":9553,"Ġcatching":9554,"ĠEmma":9555,"ĠLuke":9556,"Ġjoins":9557,"Ġobjects":9558,"Ġteaching":9559,"ĠWhether":9560,"Ġoverwhelming":9561,"Ġignorant":9562,"Ġbonus":9563,"40":9564,"Ed":9565,"wed":9566,"xic":9567,"heim":9568,"Ġbanned":9569,"ali":9570,"ĠAcc":9571,"Ġthugs":9572,"ĠLill":9573,"ĠPowers":9574,"ĠRating":9575,"ĠRub":9576,"ĠFut":9577,"Ġjustify":9578,"ĠEither":9579,"Ġpeop":9580,"Ġawe":9581,"Ġdistant":9582,"Ġconvol":9583,"ĠColin":9584,"Ġclaimed":9585,"Ġburned":9586,"ĠBurton":9587,"Ġsubstant":9588,"Ġsalv":9589,"grade":9590,"Ġdespair":9591,"Ġprincess":9592,"Ġhence":9593,"ĠNYC":9594,"Ġaccompanied":9595,"Ġunbearable":9596,"ĠVegas":9597,"Ġriveting":9598,"Ġmesmer":9599,"Ġdozens":9600,"Ġdilem":9601,"Go":9602,"Many":9603,"bles":9604,"cop":9605,"gian":9606,"Ġcup":9607,"iceless":9608,"ĠWorth":9609,"ĠDante":9610,"Ġdoors":9611,"ĠLomb":9612,"ĠLots":9613,"irsty":9614,"perfect":9615,"Ġarmed":9616,"Ġroyal":9617,"Ġguitar":9618,"ĠStock":9619,"Ġcompens":9620,"ĠBeach":9621,"Ġstaring":9622,"ĠCarpenter":9623,"Ġclimactic":9624,"Ġruins":9625,"Ġporno":9626,"ĠCopp":9627,"ĠBurke":9628,"Ġshadows":9629,"Ġnostalgic":9630,"ĠLatin":9631,"Ġwrapped":9632,"Ġtiresome":9633,"Ind":9634,"OST":9635,"hour":9636,"iour":9637,"sha":9638,"Ġlam":9639,"ĠIng":9640,"rob":9641,"ĠSPOILER":9642,"Ġatroc":9643,"Ġchaos":9644,"ĠLance":9645,"ĠRoll":9646,"feld":9647,"ĠGill":9648,"ĠGinger":9649,"ullivan":9650,"Ġbridge":9651,"ddy":9652,"Ġglor":9653,"Ġgenerations":9654,"Ġalongside":9655,"Ġtastes":9656,"ĠRussia":9657,"Ġcrucial":9658,"Ġkicking":9659,"Ġhints":9660,"Ġmotivations":9661,"Ġninja":9662,"Ġcelebrity":9663,"ĠVampire":9664,"Ġvengeance":9665,"Ġassemb":9666,"AW":9667,"uy":9668,"vity":9669,"worth":9670,"Ġwolf":9671,"Ġgarden":9672,"Ġstark":9673,"ĠAh":9674,"ĠBac":9675,"Ġkitchen":9676,"ĠLancaster":9677,"Ġnep":9678,"ĠFortunately":9679,"Ġloads":9680,"Ġdish":9681,"Ġworker":9682,"izer":9683,"Ġbuck":9684,"Ġreport":9685,"shine":9686,"ĠAngus":9687,"Ġintroduces":9688,"Ġconditions":9689,"Ġsatisfied":9690,"ĠSadako":9691,"Ġdescribes":9692,"Ġunintentional":9693,"ĠClassic":9694,"Ġconvoluted":9695,"?'":9696,"Mart":9697,"lav":9698,"uated":9699,"Ġtv":9700,"Ġfier":9701,"Ġchat":9702,"Ġcens":9703,"Ġrely":9704,"sect":9705,"ĠSally":9706,"ooges":9707,"ĠHolly":9708,"ĠDoc":9709,"elic":9710,"ĠPleas":9711,"quel":9712,"manuelle":9713,"Ġflop":9714,"ĠUlt":9715,"ĠSheriff":9716,"Ġvisible":9717,"Ġsleaze":9718,"Ġcountryside":9719,"Ġtreats":9720,"ĠBrazil":9721,"Ġoccasion":9722,"ĠMonster":9723,"ĠAustin":9724,"Ġballs":9725,"Ġcounterpart":9726,"Ġgimmick":9727,"Can":9728,"Jul":9729,"funny":9730,"zard":9731,"Ġsan":9732,"Ġcities":9733,"Ġonline":9734,"Ġalter":9735,"ĠLon":9736,"ĠFu":9737,"Ġrul":9738,"Ġmyt":9739,"iana":9740,"Ġsimult":9741,"Ġpriceless":9742,"lik":9743,"Ġexcruciating":9744,"Ġavoided":9745,"ĠSupp":9746,"Ġdepicts":9747,"radine":9748,"ĠCandyman":9749,"white":9750,"Ġpsychiatrist":9751,"Ġseventies":9752,"Bas":9753,"HH":9754,"pan":9755,"Ġmast":9756,"Ġple":9757,"enth":9758,"ceived":9759,"Ġsegments":9760,"ĠSeth":9761,"rient":9762,"ĠBerry":9763,"ĠMiddle":9764,"ĠCook":9765,"astard":9766,"ĠFat":9767,"ĠExt":9768,"oder":9769,"Ġspaces":9770,"ilyn":9771,"Ġimperson":9772,"ĠAli":9773,"Ġskull":9774,"eryl":9775,"Ġembarrassment":9776,"THING":9777,"hart":9778,"Once":9779,"ĠYears":9780,"Ġhighest":9781,"Ġcourtroom":9782,"yrics":9783,"Ġhalluc":9784,"Ġadvertising":9785,"Ġseverely":9786,"Ġtonight":9787,"Ġjewel":9788,"ĠJordan":9789,"Ġsafety":9790,"Big":9791,"aith":9792,"list":9793,"Ġfought":9794,"Ġboun":9795,"Ġpages":9796,"atures":9797,"ĠIron":9798,"irts":9799,"ĠBaker":9800,"Ġcommend":9801,"Ġvig":9802,"ĠLoy":9803,"Ġconve":9804,"Ġinsist":9805,"Ġinterrupt":9806,"Ġhousehold":9807,"Ġvaluable":9808,"heads":9809,"Ġoccasions":9810,"Ġlegit":9811,"Ġpsychic":9812,"austrop":9813,"Ġfundament":9814,"ĠBeautiful":9815,"Ġdedicated":9816,"Ġsplendid":9817,"Ġpresumably":9818,"Ġderivative":9819,"py":9820,"Ġsung":9821,"oured":9822,"keeper":9823,"ĠSP":9824,"rio":9825,"ĠMake":9826,"ĠFoster":9827,"ĠNa":9828,"ellig":9829,"Ġcliff":9830,"Ġguards":9831,"ĠHeaven":9832,"Ġremained":9833,"Ġdesires":9834,"Ġrecru":9835,"retched":9836,"Ġinsanity":9837,"arents":9838,"Ġsecondary":9839,"Ġpossibilities":9840,"gery":9841,"ĠReyn":9842,"Ġassault":9843,"Ġpattern":9844,"ĠSomehow":9845,"Ġrooms":9846,"Ġconsiderable":9847,"Ġcinematographer":9848,"ologist":9849,"Ġclosest":9850,"Ġsouls":9851,"bbing":9852,"Ġdisappeared":9853,"ĠWalken":9854,"ĠDoris":9855,"Ġalcoholic":9856,"ĠCassave":9857,"Ġvulnerable":9858,"Mur":9859,"brid":9860,"ril":9861,"wan":9862,"Ġfingers":9863,"Ġmund":9864,"Ġpad":9865,"Ġdrill":9866,"ilight":9867,"ĠTalk":9868,"ĠTroy":9869,"ĠAW":9870,"ĠAugust":9871,"ĠMant":9872,"ĠCart":9873,"Ġplight":9874,"Ġfee":9875,"Ġoveracting":9876,"ĠAside":9877,"Ġcrashes":9878,"Ġnightmares":9879,"Ġphrase":9880,"Ġassigned":9881,"Ġheartbreaking":9882,"roma":9883,"ĠCarradine":9884,"Ġprovoking":9885,"ĠIsrael":9886,"????":9887,"ĠKeith":9888,"ĠConn":9889,"Ġagenda":9890,"ĠGodfather":9891,"OUS":9892,"ĠNOTHING":9893,"Ġpunishment":9894,"prov":9895,"Ġhideous":9896,"ĠHayes":9897,"bone":9898,"ji":9899,"ping":9900,"Ġocean":9901,"Ġmafia":9902,"oust":9903,"ieves":9904,"Ġheist":9905,"ĠWAS":9906,"Ġjazz":9907,"Ġalleg":9908,"Ġgoodness":9909,"Ġgreatness":9910,"Ġawa":9911,"Ġcomparing":9912,"Ġrelies":9913,"Ġsincere":9914,"ĠThus":9915,"Ġimagined":9916,"ĠSeven":9917,"Ġantagon":9918,"urai":9919,"ĠBrook":9920,"Ġexisted":9921,"Ġpopularity":9922,"Ġinvestigating":9923,"related":9924,"ĠSlater":9925,"Ġaccomplish":9926,"Ġchoreographed":9927,"ĠSEE":9928,"ixties":9929,"Ġcomposer":9930,"Ġhesit":9931,"Ġelegant":9932,"\"!":9933,"AG":9934,"Please":9935,"Spe":9936,"dog":9937,"hle":9938,"sky":9939,"ueless":9940,"Ġbuddies":9941,"ctic":9942,"alo":9943,"ĠTem":9944,"ĠSav":9945,"ĠBible":9946,"ĠMY":9947,"Ġvom":9948,"Ġprospect":9949,"inda":9950,"ellers":9951,"ĠKap":9952,"Ġpoison":9953,"Ġpoetic":9954,"acity":9955,"ĠVideo":9956,"ĠStall":9957,"ashi":9958,"Ġabsent":9959,"Ġwaited":9960,"ĠEdwards":9961,"Ġvein":9962,"Ġsurviving":9963,"ĠEnjoy":9964,"ylum":9965,"ĠFlor":9966,"ĠMurder":9967,"ĠSilver":9968,"ĠBetter":9969,"Ġfrequent":9970,"Ġcliche":9971,"Ġpoliceman":9972,"ĠOlivia":9973,"Ġprincipal":9974,"ifferent":9975,"ĠGREAT":9976,"Ġabysmal":9977,"ocalyptic":9978,"ĠLombard":9979,"PS":9980,"Ġaest":9981,"Ġbully":9982,"omy":9983,"oto":9984,"Ġnarrow":9985,"robe":9986,"ĠHumphrey":9987,"ĠDON":9988,"ĠDoyle":9989,"ppers":9990,"ĠGran":9991,"Ġships":9992,"Ġperman":9993,"Ġclaustrop":9994,"Ġtripe":9995,"Ġcoff":9996,"Ġ35":9997,"arrie":9998,"Ġconfident":9999,"Ġmenace":10000,"ĠUnless":10001,"ĠMystery":10002,"ĠSea":10003,"ĠShah":10004,"Ġlands":10005,"Ġsensual":10006,"Ġcleverly":10007,"Ġ1999":10008,"Ġoperation":10009,"ĠProject":10010,"ĠAbb":10011,"ĠPolish":10012,"Ġalternate":10013,"Ġhomosexuality":10014,"Ġunpredictable":10015,"ĠTurkish":10016,"Ġcorporate":10017,"ĠWITH":10018,"Ġincompetent":10019,"ĠCoppola":10020,"Ant":10021,"dies":10022,"gement":10023,"Ġtherap":10024,"Ġwave":10025,"Ġwished":10026,"Ġtos":10027,"child":10028,"Ġprol":10029,"ĠNavy":10030,"ĠEle":10031,"Ġshif":10032,"geon":10033,"Ġdirects":10034,"ensical":10035,"ĠStran":10036,"ĠUnt":10037,"Ġtravest":10038,"Ġresort":10039,"Ġsham":10040,"ĠBlake":10041,"Ġvisions":10042,"Ġrefuge":10043,"Ġcontinually":10044,"Ġpromises":10045,"ĠPlot":10046,"ORE":10047,"ALL":10048,"Ġbusinessman":10049,"ropriately":10050,"Ġfreaks":10051,"Ġfoolish":10052,"Ġeducation":10053,"Ġbeliefs":10054,"Ġadopt":10055,"Ġnostalgia":10056,"ĠDetective":10057,"ĠNinja":10058,"ĠChildren":10059,"Ġglobal":10060,"ĠCharacters":10061,"ĠHannah":10062,"George":10063,"ĠHistory":10064,"Ġmundane":10065,")...":10066,"Sec":10067,"pa":10068,"iners":10069,"Ġstilted":10070,"ĠBud":10071,"Ġweather":10072,"cker":10073,"ulations":10074,"ifully":10075,"ĠFriend":10076,"Ġmankind":10077,"ffic":10078,"Ġsappy":10079,"Ġtea":10080,"ĠVill":10081,"Ġraises":10082,"spir":10083,"Ġtriangle":10084,"Ġpatience":10085,"ĠConan":10086,"ĠShirley":10087,"Ġrepresented":10088,"Ġrandomly":10089,"ĠApart":10090,"ĠSeeing":10091,"ĠBela":10092,"Ġcorrectly":10093,"Ġoptim":10094,"Ġhurts":10095,"Ġexposition":10096,"imagin":10097,"ĠNobody":10098,"ĠProfessor":10099,"Br":10100,"Dan":10101,"Ser":10102,"Sam":10103,"Watch":10104,"bound":10105,"foot":10106,"numb":10107,"talk":10108,"word":10109,"Ġsess":10110,"Ġdys":10111,"ĠBal":10112,"Ġlips":10113,"tery":10114,"ĠCross":10115,"Ġorche":10116,"ĠGable":10117,"ĠOper":10118,"Ġscenar":10119,"Ġshowdown":10120,"iley":10121,"obs":10122,"ocr":10123,"Ġcomedians":10124,"ĠCarrey":10125,"Ġconstruction":10126,"Ġdiscovery":10127,"Ġsteam":10128,"Ġ2004":10129,"Ġphotos":10130,"bbed":10131,"ĠTerror":10132,"ĠValent":10133,"Ġsneak":10134,"Ġshowcase":10135,"Ġswimming":10136,"Ġwidow":10137,"ĠFreeman":10138,"ĠVirginia":10139,"onymous":10140,"Ġpeoples":10141,"Ali":10142,"Or":10143,"Te":10144,"din":10145,"drama":10146,"pin":10147,"Ġbin":10148,"iland":10149,"ĠCaine":10150,"Ġexquis":10151,"ĠGray":10152,"Ġoverrated":10153,"nered":10154,"Ġblur":10155,"everal":10156,"Ġworlds":10157,"Ġbasket":10158,"Ġdifferently":10159,".......":10160,"Ġirres":10161,"Ġweakest":10162,"volution":10163,"Ġmodest":10164,"Ġconflicts":10165,"Ġdefeat":10166,"Ġdragon":10167,"Ġcorruption":10168,"Ġframed":10169,"Ġsynopsis":10170,"Ġmontage":10171,"Ġconservative":10172,"ĠFellini":10173,"big":10174,"Ġbone":10175,"Ġce":10176,"Ġcram":10177,"Ġpale":10178,"Ġpunk":10179,"Ġdict":10180,"Ġlyrics":10181,"ĠME":10182,"ĠHale":10183,"Ġsucc":10184,"Ġdod":10185,"Ġplat":10186,"ĠLib":10187,"ĠRad":10188,"ĠStu":10189,"Ġviewings":10190,"riter":10191,"Ġsubstit":10192,"Ġsenseless":10193,"note":10194,"Ġsynt":10195,"Ġguessed":10196,"Ġmasterful":10197,"ĠNeither":10198,"ĠOscars":10199,"Ġdesperation":10200,"Ġrecording":10201,"Ġdrawing":10202,"Ġjoined":10203,"Ġrolled":10204,"ĠMatrix":10205,"ĠNaturally":10206,"ĠStevens":10207,"Ġadopted":10208,"Ġbottle":10209,"Last":10210,"Wh":10211,"gles":10212,"lins":10213,"Ġties":10214,"Ġcats":10215,"Ġdarn":10216,"Ġlun":10217,"icable":10218,"ĠImp":10219,"uten":10220,"Ġrein":10221,"Ġreha":10222,"immer":10223,"ador":10224,"ĠBoo":10225,"uru":10226,"ĠCage":10227,"Ġsuited":10228,"Ġintro":10229,"Ġprinci":10230,"Ġshares":10231,"ĠShep":10232,"Ġbugs":10233,"Ġclasses":10234,"Ġchooses":10235,"playing":10236,"Ġengage":10237,"Ġadaptations":10238,"Ġfatal":10239,"IDS":10240,"Ġensues":10241,"Ġthumbs":10242,"fol":10243,"hor":10244,"wind":10245,"reens":10246,"Ġwha":10247,"haust":10248,"Ġcure":10249,"eni":10250,"Ġpushing":10251,"Ġdud":10252,"aying":10253,"ĠSop":10254,"ĠBert":10255,"Ġbutcher":10256,"Ġsus":10257,"Ġalas":10258,"ĠLOT":10259,"ĠRings":10260,"ĠGarb":10261,"Ġrude":10262,"Ġtends":10263,"Ġawake":10264,"ĠClaude":10265,"ahl":10266,"Ġnamely":10267,"Ġprofit":10268,"ATCH":10269,"Ġsensational":10270,"ĠColbert":10271,"boat":10272,"Ġwinds":10273,"Ġpersu":10274,"Only":10275,"ĠAdams":10276,"ĠImagine":10277,"Ġbuffs":10278,"ĠCostner":10279,"Ġtemper":10280,"Ġwounded":10281,"Ġresources":10282,"Ġnephew":10283,"//":10284,"Best":10285,"HA":10286,"lan":10287,"hears":10288,"Ġanaly":10289,"Ġsending":10290,"ĠSet":10291,"ĠHunt":10292,"Ġscope":10293,"Ġvib":10294,"ĠLenn":10295,"Ġneur":10296,"ĠRead":10297,"quest":10298,"ĠJeremy":10299,"Ġworn":10300,"ĠEmpire":10301,"Ġshell":10302,"ints":10303,"pecting":10304,"ĠVol":10305,"ĠViol":10306,"Ġrecon":10307,"Ġslaughter":10308,"Ġcheated":10309,"awful":10310,"Ġshared":10311,"prisingly":10312,"ĠChamp":10313,"identally":10314,"ĠMarl":10315,"ĠBloom":10316,"Ġphony":10317,"Ġromp":10318,"Ġmentioning":10319,"ucing":10320,"Ġ2003":10321,"ARN":10322,"goers":10323,"Ġbackgrounds":10324,"Ġconcepts":10325,"Ġcatches":10326,"ĠFreddie":10327,"Ġmarketing":10328,"--------":10329,"ĠHopefully":10330,"Ġapplaud":10331,"Ġmethods":10332,"Ġlifted":10333,"Ġuniversal":10334,"Ġsketch":10335,"Ġtroops":10336,"ĠPanther":10337,"ĠReynolds":10338,"Av":10339,"evil":10340,"motion":10341,"oqu":10342,"town":10343,"Ġapt":10344,"itors":10345,"Ġpub":10346,"Ġrebell":10347,"Ġstream":10348,"ĠBin":10349,"ĠMau":10350,"ĠHur":10351,"ĠFour":10352,"ĠFreak":10353,"ĠJill":10354,"ĠJaws":10355,"ĠKra":10356,"Ġimplic":10357,"acious":10358,"Ġsport":10359,"ensen":10360,"Ġattorney":10361,"Ġundercover":10362,"Ġcontrolled":10363,"Ġhumble":10364,"ĠChurch":10365,"Ġcareful":10366,"Ġexceptionally":10367,"Ġpainted":10368,"Ġfantas":10369,"iker":10370,"Ġrespected":10371,"Ġhistorically":10372,"Ġblew":10373,"ĠOthers":10374,"Ġwildly":10375,"Ġfashioned":10376,"Ġphotograph":10377,"Ġstyles":10378,"ĠCentral":10379,"Ġgifted":10380,"Ġtravesty":10381,"Brien":10382,"UM":10383,"ipper":10384,"enger":10385,"ĠTroma":10386,"hole":10387,"rain":10388,"ĠBis":10389,"ĠHugh":10390,"unior":10391,"Ġplag":10392,"Ġabused":10393,"Ġintr":10394,"auer":10395,"Ġserving":10396,"Ġapolog":10397,"Ġnights":10398,"ĠCharlotte":10399,"ĠSamuel":10400,"ĠExcellent":10401,"Ġbiased":10402,"ĠDiane":10403,"ĠCruise":10404,"ĠScarlet":10405,"uddenly":10406,"Car":10407,"His":10408,"Her":10409,"Hollywood":10410,"both":10411,"eged":10412,"ua":10413,"ision":10414,"Ġbite":10415,"Ġcode":10416,"orms":10417,"Ġlens":10418,"Ġlonel":10419,"Ġreck":10420,"Ġsta":10421,"ldom":10422,"ĠBR":10423,"Ġsoci":10424,"akota":10425,"ĠGos":10426,"ĠNort":10427,"Ġpecul":10428,"neath":10429,"Ġrealizing":10430,"Ġcharacteristic":10431,"Ġspring":10432,"Ġfactory":10433,"Ġowned":10434,"atton":10435,"ountain":10436,"Ġindic":10437,"Ġpassable":10438,"Ġswall":10439,"char":10440,"Ġfuturistic":10441,"Ġprotest":10442,"Ġquestionable":10443,"Ġsecretly":10444,"Ġdrops":10445,"Ġbehaviour":10446,"Ġquietly":10447,"Ġfaults":10448,"Ġbalanced":10449,"Ġfrustration":10450,"ĠInterest":10451,"ĠSharpe":10452,"ĠThroughout":10453,"ĠPicture":10454,"Ġjournalist":10455,"Ġingredients":10456,"Dr":10457,"Pat":10458,"War":10459,"fashion":10460,"Ġmile":10461,"Ġtopless":10462,"arity":10463,"cends":10464,"Ġans":10465,"ĠSC":10466,"ĠHogan":10467,"ĠDuck":10468,"Ġchased":10469,"ĠGall":10470,"ĠNol":10471,"Ġunimagin":10472,"ĠEye":10473,"ĠKath":10474,"Ġquotes":10475,"through":10476,"apes":10477,"Ġflair":10478,"Ġinterests":10479,"ĠBeyond":10480,"Ġheading":10481,"lands":10482,"Ġmessed":10483,"Ġcultures":10484,"ĠShaw":10485,"ĠHerc":10486,"ĠQuentin":10487,"load":10488,"Ġauthority":10489,"Being":10490,"Black":10491,"Ġwarmth":10492,"rocod":10493,"ĠSinatra":10494,"Ġincorpor":10495,"ĠInternational":10496,"Ġartificial":10497,"utenant":10498,"AP":10499,"FE":10500,"FUL":10501,"iper":10502,"Ġmax":10503,"Ġbaff":10504,"anim":10505,"arious":10506,"Ġreel":10507,"Ġants":10508,"oos":10509,"ĠBenn":10510,"ĠCox":10511,"agg":10512,"estic":10513,"Ġritual":10514,"ĠKa":10515,"Ġspider":10516,"Ġflies":10517,"urned":10518,"Ġhorrifying":10519,"inski":10520,"Ġvisits":10521,"Ġhomeless":10522,"cycle":10523,"Ġreflection":10524,"Ġprominent":10525,"ĠQuite":10526,"Ġchecked":10527,"Ġproperty":10528,"Ġdiscovering":10529,"Ġsuitable":10530,"ugging":10531,"Ġroute":10532,"iseries":10533,"Ġrepresentation":10534,"Ġscrewball":10535,"Ġchallenges":10536,"ĠPhillips":10537,"Ġdinosaurs":10538,"Ġimmensely":10539,"Ġcoffin":10540,"held":10541,"inations":10542,"itel":10543,"iche":10544,"Ġstale":10545,"ĠAff":10546,"ĠAction":10547,"ĠSor":10548,"ĠDirty":10549,"olit":10550,"Ġdeaf":10551,"ĠRiver":10552,"ando":10553,"ĠFors":10554,"ĠGothic":10555,"Ġunaware":10556,"ĠEar":10557,"Ġpreced":10558,"enson":10559,"ipid":10560,"Ġshake":10561,"rilliant":10562,"ĠShearer":10563,"ĠAllan":10564,"ĠLegend":10565,"Ġappreciation":10566,"Ġexplores":10567,"spector":10568,"Ġbehave":10569,"Ġlaughably":10570,"Ġ*****":10571,"Ġminimum":10572,"Ġsurvivor":10573,"ĠHopper":10574,"Ġbetrayal":10575,"Ġtaxi":10576,"Ġhench":10577,"Ġsevere":10578,"ĠJuan":10579,"Ġcandid":10580,"Ġunexplained":10581,"-)":10582,"wick":10583,"zing":10584,"inity":10585,"Ġdiamond":10586,"Ġbell":10587,"ĠSullivan":10588,"ĠTheater":10589,"ĠBess":10590,"ĠCob":10591,"ĠHy":10592,"ĠPoint":10593,"Ġintric":10594,"istol":10595,"ĠGil":10596,"These":10597,"Ġroots":10598,"Ġawhile":10599,"Ġrecover":10600,"developed":10601,"Ġaccuracy":10602,"Ġmusicians":10603,"Ġexploration":10604,"Ġlasted":10605,"ugene":10606,"ĠPerry":10607,"Ġcondem":10608,"Ġjudgment":10609,"ĠSeries":10610,"Ġmerits":10611,"ĠDoug":10612,"Ġprimitive":10613,"Ġconsistent":10614,"Ġderanged":10615,"Ġobliv":10616,"ĠUniversity":10617,"Ġglasses":10618,"Ġwandering":10619,"ĠJersey":10620,"âĢĻ":10621,"orcist":10622,"ĠPhantom":10623,"Ġsilliness":10624,"case":10625,"daughter":10626,"power":10627,"vals":10628,"Ġwishing":10629,"Ġbumbling":10630,"Ġdwarf":10631,"Ġbehold":10632,"ĠTun":10633,"Ġhears":10634,"Ġthru":10635,"Ġwealth":10636,"ĠCut":10637,"ĠHonestly":10638,"emic":10639,"ags":10640,"ĠRich":10641,"ĠFun":10642,"Ġunra":10643,"Ġunsu":10644,"Ġunhappy":10645,"Ġsheep":10646,"pling":10647,"ĠKung":10648,"abs":10649,"Ġteaches":10650,"urning":10651,"Ġglorious":10652,"Ġexperiments":10653,"ĠRebecca":10654,"Ġconviction":10655,"Ġstrangers":10656,"Ġpurs":10657,"ATH":10658,"Ġstraightforward":10659,"warming":10660,"ĠONE":10661,"Ġmountains":10662,"Ġexcessive":10663,"Ġfilth":10664,"Ġambiguous":10665,"icolor":10666,"Ġsimultaneously":10667,"Ġloneliness":10668,"Little":10669,"faced":10670,"rome":10671,"llo":10672,"arse":10673,"Ġecho":10674,"vere":10675,"rock":10676,"ĠSoph":10677,"ĠMing":10678,"ĠCL":10679,"ĠWals":10680,"ĠDer":10681,"arts":10682,"ĠLana":10683,"Ġrush":10684,"ĠEyes":10685,"ĠOrigin":10686,"Ġenlight":10687,"ĠKey":10688,"Ġclueless":10689,"Ġsometime":10690,"ĠState":10691,"ĠStrange":10692,"ĠStooges":10693,"Ġinvited":10694,"ĠClive":10695,"Ġ99":10696,"Ġsquare":10697,"Ġdepicting":10698,"ĠHamilton":10699,"Ġbanal":10700,"Ġfloating":10701,"ĠCassavetes":10702,"Since":10703,"bi":10704,"bury":10705,"cil":10706,"Ġsor":10707,"oni":10708,"ĠAle":10709,"ĠWright":10710,"ĠWAY":10711,"ĠLuck":10712,"ĠNero":10713,"odes":10714,"Ġamid":10715,"Ġmayhem":10716,"acts":10717,"ĠAlt":10718,"Ġinvis":10719,"Ġgrate":10720,"Ġgrief":10721,"Ġsuperhero":10722,"Ġedition":10723,"ĠFrances":10724,"Ġmisleading":10725,"chair":10726,"ĠQue":10727,"ĠIsab":10728,"Ġcapturing":10729,"renching":10730,"Ġwrites":10731,"OOOO":10732,"Ġdiscussing":10733,"hetto":10734,"____":10735,"Ġrotten":10736,"ĠHotel":10737,"Fred":10738,"dam":10739,"fu":10740,"za":10741,"Ġinability":10742,"Ġhabit":10743,"Ġseam":10744,"ĠBun":10745,"Ġlip":10746,"ĠWorst":10747,"Ġjer":10748,"Ġwholly":10749,"ĠLange":10750,"aux":10751,"Ġ---":10752,"Ġunderneath":10753,"Ġsimilarly":10754,"Ġreson":10755,"Ġrelatives":10756,"Ġconfidence":10757,"Ġmisery":10758,"Ġteams":10759,"Ġmilk":10760,"Ġwaitress":10761,"Ġauthorities":10762,"ifties":10763,"ĠNathan":10764,"Ġdebate":10765,"ĠCollins":10766,"ĠNicholson":10767,"Ġpursuit":10768,"Ġcomplaints":10769,"ĠBoris":10770,"ĠWesley":10771,"Ġamusement":10772,"ĠTarzan":10773,"EE":10774,"UE":10775,"dra":10776,"giving":10777,"gency":10778,"inating":10779,"Ġmate":10780,"esis":10781,"Ġease":10782,"Ġhij":10783,"ĠBuster":10784,"unks":10785,"Ġscrap":10786,"Ġdoctors":10787,"Ġexhaust":10788,"Ġlegends":10789,"neck":10790,"erella":10791,"apid":10792,"ĠValley":10793,"Ġhorny":10794,"Ġrecyc":10795,"Ġslim":10796,"ffects":10797,"Ġcheating":10798,"Ġsmell":10799,"Ġinsipid":10800,"Ġletters":10801,"Ġrecommendation":10802,"Ġretired":10803,"otta":10804,"Ġexpand":10805,"ĠAtl":10806,"Ġmorals":10807,"phone":10808,"blum":10809,"Ġdisgrace":10810,"Ġprostitution":10811,"ĠONLY":10812,"Ġtacky":10813,"ĠSyd":10814,"Ġactivities":10815,"Ġneurotic":10816,"ĠForsy":10817,"12":10818,"15":10819,"AV":10820,"Em":10821,"Hara":10822,"rating":10823,"yman":10824,"Ġinsec":10825,"Ġmode":10826,"Ġwashed":10827,"Ġsched":10828,"essa":10829,"Ġvain":10830,"ference":10831,"Ġclip":10832,"Ġminiseries":10833,"Ġcomprom":10834,"Ġrefuse":10835,"Ġprize":10836,"Ġattacking":10837,"Ġbarrel":10838,"Ġtrend":10839,"ASE":10840,"ĠIndiana":10841,"Ġcontrary":10842,"Ġprostitutes":10843,"uppet":10844,"Ġsketches":10845,"ĠPhantasm":10846,"Ġinexplicably":10847,"ĠAwful":10848,"Ġuplifting":10849,"Ġdysfunction":10850,"NA":10851,"bust":10852,"ca":10853,"did":10854,"oir":10855,"Ġwore":10856,"Ġwides":10857,"Ġcul":10858,"oria":10859,"anning":10860,"Ġliners":10861,"ĠTib":10862,"ĠBava":10863,"Ġabusive":10864,"ĠPin":10865,"ĠFunny":10866,"Ġunst":10867,"peror":10868,"Ġagency":10869,"gets":10870,"ĠInn":10871,"Ġbackwards":10872,"active":10873,"Ġinvented":10874,"ĠThor":10875,"Ġmargin":10876,"Ġconvincingly":10877,"Ġexped":10878,"Ġvalid":10879,"Ġdealer":10880,"Ġmurdering":10881,"uries":10882,"ventures":10883,"Ġlengthy":10884,"Ġsignificance":10885,"Ġfifty":10886,"ĠDorothy":10887,"Ġreferred":10888,"Ġchuckle":10889,"ĠReeves":10890,"Ġreleases":10891,"Ġengrossing":10892,"ĠStallone":10893,"Ġpeculiar":10894,"creen":10895,"dig":10896,"named":10897,"vial":10898,"will":10899,"wyn":10900,"Ġwretched":10901,"Ġdating":10902,"Ġlately":10903,"omic":10904,"stage":10905,"ĠSound":10906,"Ġthr":10907,"ĠChop":10908,"ĠDur":10909,"ĠDolph":10910,"usty":10911,"Ġpeak":10912,"version":10913,"Ġchicks":10914,"Ġobst":10915,"azing":10916,"Ġprofanity":10917,"Ġpromised":10918,"ielding":10919,"Ġairport":10920,"engers":10921,"Ġplanes":10922,"END":10923,"ysis":10924,"ĠGuest":10925,"Ġlaws":10926,"Ġrecognizable":10927,"Ġhyper":10928,"Ġfascinated":10929,"Ġstores":10930,"Ġastron":10931,"ĠMalcolm":10932,"ĠMae":10933,"Ġtroubles":10934,"ĠPoir":10935,"ĠHalf":10936,"Ġmacho":10937,"Ġalbum":10938,"doc":10939,"eous":10940,"oard":10941,"roe":10942,"Ġforty":10943,"ĠSellers":10944,"ĠCAN":10945,"Ġscreens":10946,"Ġdele":10947,"ĠJen":10948,"ĠOuter":10949,"Ġhokey":10950,"Ġentitled":10951,"ĠAnnie":10952,"Ġmarries":10953,"Ġtopics":10954,"Ġmysteries":10955,"Ġmoronic":10956,"Ġillogical":10957,"Ġboxing":10958,"Ġposted":10959,"Ġliterary":10960,"Ġthreatens":10961,"Ġdrinks":10962,"Ġassumed":10963,"Ġnonsensical":10964,"Ġnerve":10965,"arette":10966,"Ġflee":10967,"Ġpurchased":10968,"Ġemphasis":10969,"Ġdestroying":10970,"Ġguarantee":10971,"Ġadmittedly":10972,"Ġdreary":10973,"!'":10974,",(":10975,"Men":10976,"Super":10977,"Tra":10978,"hot":10979,"ihil":10980,"mus":10981,"rings":10982,"iti":10983,"vell":10984,"Ġhealthy":10985,"ĠBased":10986,"ĠMUST":10987,"olves":10988,"ĠPop":10989,"astically":10990,"about":10991,"mann":10992,"ĠVon":10993,"Ġraces":10994,"Ġsharing":10995,"Ġboom":10996,"Ġpolished":10997,"Ġregards":10998,"Ġadvise":10999,"ATE":11000,"Ġfocusing":11001,"Ġaircraft":11002,"Ġairplane":11003,"ĠQuinn":11004,"ĠTruth":11005,"burgh":11006,"Ġoption":11007,"ĠBernie":11008,"Ġicon":11009,"ĠRoyal":11010,"ĠRandolph":11011,"ĠRepublic":11012,"Ġanswered":11013,"ĠWalsh":11014,"Int":11015,"Never":11016,"bow":11017,"Ġwis":11018,"Ġmouse":11019,"Ġmuse":11020,"Ġpink":11021,"Ġgap":11022,"Ġstress":11023,"ĠCus":11024,"ĠJod":11025,"resa":11026,"Ġmeand":11027,"igo":11028,"Ġleather":11029,"ĠHeather":11030,"berry":11031,"Ġsmiling":11032,"Ġwarrant":11033,"ĠBea":11034,"ERT":11035,"Ġmatches":11036,"Ġacid":11037,"ĠThur":11038,"Ġcrazed":11039,"Ġblackmail":11040,"Ġexpense":11041,"guy":11042,"Ġcomplaining":11043,"Ġyesterday":11044,"ĠFlash":11045,"Ġbleed":11046,"Ġempathy":11047,"ĠTerminator":11048,"ĠLindsay":11049,"particularly":11050,"special":11051,"Ġpredecessor":11052,"Ġshameless":11053,"Ġsuspend":11054,"front":11055,"length":11056,"och":11057,"vate":11058,"Ġx":11059,"Ġ....":11060,"Ġwow":11061,"Ġfiring":11062,"alie":11063,"Ġreli":11064,"Ġstatic":11065,"idy":11066,"amiliar":11067,"ĠWish":11068,"Ġscat":11069,"ifest":11070,"emet":11071,"outhed":11072,"ĠPut":11073,"Ġintimate":11074,"ĠJed":11075,"ĠNov":11076,"Ġquarter":11077,"Ġdism":11078,"typ":11079,"ionship":11080,"Ġslaves":11081,"psy":11082,"Ġtrivial":11083,"Ġscreenwriters":11084,"ĠMario":11085,"ĠForget":11086,"notch":11087,"ĠUnion":11088,"Ġadvanced":11089,"iami":11090,"Ġsupported":11091,"Ġmasterpieces":11092,"iko":11093,"Ġsuspic":11094,"ĠRichards":11095,"Ġpublicity":11096,"Ġpurposes":11097,"Ġrepeating":11098,"ttes":11099,"ĠDEAD":11100,"Ġmanipulative":11101,"Ġinjured":11102,"Ġobligatory":11103,"ĠFantasy":11104,"Ġcontradict":11105,"ĠFlorida":11106,"Avoid":11107,"lay":11108,"phant":11109,"Ġ~":11110,"Ġfren":11111,"Ġtoys":11112,"Ġinherent":11113,"ĠTucker":11114,"Ġhouses":11115,"ripp":11116,"ĠBos":11117,"ĠHooper":11118,"ĠDin":11119,"ustin":11120,"ĠLas":11121,"ĠGiven":11122,"ĠKent":11123,"acle":11124,"Ġamused":11125,"ishly":11126,"Ġbrat":11127,"Ġcontempl":11128,"ighters":11129,"Ġchees":11130,"itsch":11131,"Ġmusician":11132,"ĠMarilyn":11133,"Ġ2007":11134,"ĠHawn":11135,"Ġbands":11136,"Ġcompete":11137,"Ġtracking":11138,"ĠGoldblum":11139,"Ġwitnesses":11140,"Ġmutant":11141,"Ġaccounts":11142,"Ġcompanies":11143,"Ġpedest":11144,"ĠPlanet":11145,"Ġhippie":11146,"Ġprecisely":11147,"Ġrhyth":11148,"Ġadmirable":11149,"Yeah":11150,"character":11151,"Ġneighbors":11152,"rocodile":11153,")!":11154,"felt":11155,"gi":11156,"oft":11157,"two":11158,"Ġlav":11159,"Ġforcing":11160,"ĠSong":11161,"ĠBates":11162,"ĠBeth":11163,"ĠChow":11164,"ĠDID":11165,"ĠFast":11166,"Ġunseen":11167,"ĠEll":11168,"odder":11169,"ĠKyle":11170,"Ġraising":11171,"Ġremade":11172,"Ġdecor":11173,"Ġbitch":11174,"Ġminded":11175,"Ġvisited":11176,"Ġmothers":11177,"Ġlively":11178,"Ġoppon":11179,"ĠOrson":11180,"Ġfiller":11181,"ĠBillie":11182,"afoe":11183,"Ġimmature":11184,"Ġregarded":11185,"Ġdropping":11186,"ĠGoldie":11187,"Ġscrewed":11188,"Ġtransport":11189,"ĠNicholas":11190,"ĠBlockbuster":11191,"provoking":11192,"Ġunravel":11193,"Fran":11194,"Gu":11195,"Get":11196,"cal":11197,"Ġwives":11198,"Ġmort":11199,"Ġmuddled":11200,"hau":11201,"Ġpill":11202,"aro":11203,"leton":11204,"utton":11205,"ala":11206,"ĠTurt":11207,"Ġstumble":11208,"adly":11209,"ĠBreak":11210,"ĠCec":11211,"Ġaboard":11212,"ĠLie":11213,"ĠGarden":11214,"ĠGOOD":11215,"forman":11216,"Ġhoot":11217,"ĠInspector":11218,"Ġimprison":11219,"Ġsubplots":11220,"Ġcrush":11221,"Ġexpose":11222,"Ġthrilled":11223,"offs":11224,"ietrich":11225,"ANG":11226,"Ġcombine":11227,"Ġmidnight":11228,"ASS":11229,"Ġbrutality":11230,"Ġdisgusted":11231,"Ġeaten":11232,"AME":11233,"ĠParty":11234,"Ġprivile":11235,"Ġtranslation":11236,"Ġauthenticity":11237,"ĠUpon":11238,"Ġimprovement":11239,"Ġarchite":11240,"ĠForest":11241,"ĠMcDowell":11242,"Ġsatirical":11243,"ĠAbbott":11244,"HE":11245,"Sm":11246,"bro":11247,"car":11248,"Ġ+":11249,"inated":11250,"Ġsixties":11251,"Ġwakes":11252,"Ġwoe":11253,"Ġfuel":11254,"Ġtomb":11255,"Ġpistol":11256,"Ġdances":11257,"anner":11258,"leans":11259,"Ġrerun":11260,"Ġseldom":11261,"Ġhoney":11262,"ĠBou":11263,"ĠBul":11264,"ĠMajor":11265,"ĠCON":11266,"ĠHav":11267,"ĠHappy":11268,"Ġwhore":11269,"eston":11270,"ĠLin":11271,"ĠPic":11272,"Ġrises":11273,"ĠKn":11274,"Ġsale":11275,"apse":11276,"iped":11277,"Ġexpects":11278,"Ġinstinct":11279,"script":11280,"ĠSpider":11281,"Ġpops":11282,"Ġmarked":11283,"ĠAmong":11284,"Ġspirits":11285,"Ġsharks":11286,"ITY":11287,"Ġgems":11288,"Ġservant":11289,"ĠJeffrey":11290,"Ġchicken":11291,"Ġenthra":11292,"Ġenthusiasm":11293,"Ġphenomenal":11294,"ĠStudios":11295,"Ġexecutive":11296,"fashioned":11297,"://":11298,"Hen":11299,"IRE":11300,"PER":11301,"date":11302,"door":11303,"main":11304,"ÃŃ":11305,"Ġcos":11306,"Ġdow":11307,"stock":11308,"ĠTha":11309,"ĠTok":11310,"ĠSame":11311,"ĠSeveral":11312,"ĠBIG":11313,"ĠCong":11314,"ĠCivil":11315,"ĠWag":11316,"ĠLim":11317,"umes":11318,"osition":11319,"ĠEugene":11320,"Ġimitation":11321,"Ġdisast":11322,"Ġperforms":11323,"iva":11324,"psons":11325,"Ġstartling":11326,"Ġinvites":11327,"Ġartic":11328,"Ġcream":11329,"Ġdramat":11330,"Ġexcl":11331,"Ġcredited":11332,"ĠNews":11333,"Ġrespectable":11334,"Ġresemble":11335,"Ġhomes":11336,"Ġrocket":11337,"Ġopportunities":11338,"ttp":11339,"Ġpackage":11340,"strong":11341,"Ġprepare":11342,"ĠMoreover":11343,"ructive":11344,"Ġreflects":11345,"Ġevolution":11346,"Ġarguably":11347,"ĠLionel":11348,"ĠAntonio":11349,"Ġscenarios":11350,"ĠStuart":11351,"ĠSopran":11352,"Ġinvisible":11353,")?":11354,"Did":11355,"Out":11356,"TS":11357,"fly":11358,"filled":11359,"opp":11360,"zes":11361,"Ġape":11362,"Ġfog":11363,"haha":11364,"Ġeg":11365,"Ġnails":11366,"Ġbelly":11367,"ĠAIDS":11368,"ĠSab":11369,"ĠBorn":11370,"ĠBox":11371,"ĠBelle":11372,"Ġlibert":11373,"ĠMeryl":11374,"ĠCard":11375,"ĠLoc":11376,"ĠFly":11377,"Ġoutfit":11378,"Ġrising":11379,"Ġcloud":11380,"Ġtwelve":11381,"Ġrail":11382,"ĠStars":11383,"ĠTherefore":11384,"Ġchronic":11385,"actors":11386,"Ġkeen":11387,"eworthy":11388,"Ġexperimental":11389,"Ġhearted":11390,"ricia":11391,"Ġsubjected":11392,"Ġmixing":11393,"Ġthreatened":11394,"Ġsticking":11395,"Ġcompelled":11396,"probably":11397,"Ġwidely":11398,"Ġschlock":11399,"Ġcliches":11400,"Ġfirmly":11401,"Ġpreachy":11402,"ĠHackman":11403,"Ġsympathize":11404,"Ġparanoid":11405,"Basically":11406,"ĠGarbo":11407,"Pr":11408,"Rating":11409,"Sure":11410,"inter":11411,"ingo":11412,"Ġgam":11413,"leen":11414,"Ġmoody":11415,"Ġselect":11416,"ĠBand":11417,"ĠMain":11418,"ĠCD":11419,"Ġdope":11420,"Ġalleged":11421,"agle":11422,"ĠLE":11423,"Ġrings":11424,"ĠOt":11425,"ĠKit":11426,"ĠYan":11427,"Ġramb":11428,"Ġmins":11429,"Ġminus":11430,"Ġappropriately":11431,"Ġmemor":11432,"ĠScary":11433,"Ġretire":11434,"Ġassign":11435,"Ġdemented":11436,"ĠKeitel":11437,"Ġsweat":11438,"Ġdoubts":11439,"Ġangel":11440,"Ġsecretary":11441,"Ġmentions":11442,"ĠHenri":11443,"Ġteachers":11444,"Ġadditional":11445,"ĠSilent":11446,"Ġreaching":11447,"Ġinsightful":11448,"Ġincomprehensible":11449,"ĠEverett":11450,"Ġyellow":11451,"Ġincorrect":11452,"Ġgreedy":11453,"ĠMcCarthy":11454,"likable":11455,"Second":11456,"emetery":11457,"Dra":11458,"Jason":11459,"Me":11460,"OS":11461,"Sim":11462,"cross":11463,"eem":11464,"occ":11465,"Ġfaster":11466,"Ġlic":11467,"owulf":11468,"ĠMind":11469,"ĠHos":11470,"Ġintentionally":11471,"istan":11472,"Ġrats":11473,"Ġloaded":11474,"Ġenig":11475,"ĠVis":11476,"Ġslip":11477,"actor":11478,"Ġlasts":11479,"Ġconscience":11480,"Ġcreator":11481,"onto":11482,"Ġdefined":11483,"Ġlocals":11484,"Ġdemise":11485,"oiled":11486,"Ġhugely":11487,"OULD":11488,"Ġintroduce":11489,"Ġhistoric":11490,"Ġliterature":11491,"affy":11492,"ACE":11493,"Ġaccurately":11494,"Ġspectacle":11495,"Ġemerges":11496,"Ġpitiful":11497,"ĠSkip":11498,"Ġrevolutionary":11499,"ĠLeonard":11500,"Ġdetectives":11501,"Ġreluctant":11502,"ĠTruly":11503,"Ġlackluster":11504,"Ġcensors":11505,"ĠKapoor":11506,"Cr":11507,"bidden":11508,"days":11509,"wall":11510,"Ġsque":11511,"Ġcran":11512,"Ġpoo":11513,"uters":11514,"ieval":11515,"raiser":11516,"ĠAD":11517,"ĠSoder":11518,"ami":11519,"ĠMos":11520,"ĠDietrich":11521,"Ġdoom":11522,"Ġvital":11523,"Ġcong":11524,"ĠEarl":11525,"ighty":11526,"ĠOs":11527,"Ġshift":11528,"ardless":11529,"ĠKi":11530,"ianist":11531,"Ġhoc":11532,"Ġunderwater":11533,"Ġresidents":11534,"Ġinvasion":11535,"Ġshaky":11536,"orders":11537,"Ġshoddy":11538,"Ġgrainy":11539,"ounty":11540,"ĠReed":11541,"Ġpassengers":11542,"comp":11543,"Ġrefers":11544,"Ġmisgu":11545,"Ġstranded":11546,"Ġpresenting":11547,"ĠEdgar":11548,"ARS":11549,"ĠShields":11550,"Ġcompliment":11551,"OUR":11552,"Ġhomic":11553,"ĠRussians":11554,"Ġsquad":11555,"plicity":11556,"Ġpilots":11557,"ĠTrust":11558,"ĠAlexander":11559,"Ġlifeless":11560,"Ġgrip":11561,"Ġvehicles":11562,"Ġtunes":11563,"ĠMarshall":11564,"ĠCompany":11565,"Ġrejected":11566,"Ġmotorcycle":11567,"ĠTechnicolor":11568,"ĠAbsolutely":11569,"Cont":11570,"King":11571,"cles":11572,"jas":11573,"mun":11574,"woman":11575,"zel":11576,"Ġmim":11577,"Ġmap":11578,"Ġbrown":11579,"iless":11580,"Ġhitch":11581,"ĠBook":11582,"illion":11583,"ĠHapp":11584,"ĠHank":11585,"ĠHanks":11586,"unting":11587,"Ġvice":11588,"Ġwhiny":11589,"ĠList":11590,"ĠPage":11591,"ĠPorky":11592,"ĠFort":11593,"ĠGee":11594,"Ġmeas":11595,"icky":11596,"inks":11597,"plex":11598,"epburn":11599,"ĠJoel":11600,"Ġowns":11601,"Ġrelation":11602,"mostly":11603,"unker":11604,"Ġtowns":11605,"Ġcentered":11606,"bye":11607,"Ġmorally":11608,"Ġmedic":11609,"Ġsubtly":11610,"Ġidentical":11611,"Ġfascination":11612,"Ġrequest":11613,"ettes":11614,"Ġremarks":11615,"ĠBelieve":11616,"Blood":11617,"Ġnerves":11618,"Ġeducational":11619,"Ġadolescent":11620,"Ġmonologue":11621,"Ġclaustrophobic":11622,"Fl":11623,"KE":11624,"cool":11625,"make":11626,"yet":11627,"Ġtip":11628,"Ġtrop":11629,"rell":11630,"Ġfist":11631,"orient":11632,"Ġpomp":11633,"Ġdazz":11634,"asing":11635,"Ġgained":11636,"icy":11637,"ĠId":11638,"stairs":11639,"ĠTW":11640,"ĠTier":11641,"Ġrehears":11642,"Ġstages":11643,"ĠAunt":11644,"ĠSinger":11645,"ĠMey":11646,"ĠCore":11647,"ĠGot":11648,"inder":11649,"igel":11650,"Ġwhats":11651,"Ġ1920":11652,"Ġviewpoint":11653,"Ġglowing":11654,"ĠSharon":11655,"ĠOrleans":11656,"Ġdestined":11657,"ĠShould":11658,"Ġlimits":11659,"ervice":11660,"impy":11661,"ĠYear":11662,"Ġspecies":11663,"Ġkidnapping":11664,"ĠLynn":11665,"Ġresolved":11666,"Ġchallenged":11667,"ĠKorea":11668,"Ġintegrity":11669,"Ġdisguised":11670,"Ġcigarette":11671,"Ġabruptly":11672,"Ġfrozen":11673,"ĠUsually":11674,"ĠLemmon":11675,"Ġinhabitants":11676,"Ġmasturb":11677,"Ġfundamental":11678,"ĠBrooklyn":11679,"17":11680,"Back":11681,"UD":11682,"wide":11683,"Ã±":11684,"Ġsaga":11685,"Ġbarb":11686,"icism":11687,"alin":11688,"ĠTol":11689,"ĠAge":11690,"ĠActor":11691,"ĠMir":11692,"ĠCre":11693,"ĠHeston":11694,"ĠDakota":11695,"ĠDafoe":11696,"ĠGor":11697,"indul":11698,"ĠOp":11699,"ĠOrange":11700,"ickford":11701,"ĠVar":11702,"ĠHend":11703,"ilda":11704,"acey":11705,"Ġsetup":11706,"Ġcheek":11707,"Ġsmugg":11708,"Ġsupply":11709,"covered":11710,"rows":11711,"iculty":11712,"ĠSold":11713,"ĠMarce":11714,"Ġrefused":11715,"Ġcorpses":11716,"Ġinfant":11717,"Ġfemin":11718,"Ġfemales":11719,"aughton":11720,"Ġrespective":11721,"Ġdifficulties":11722,"Ġlosers":11723,"Ġwilder":11724,"Ġpreferred":11725,"Ġassassination":11726,"itizen":11727,"ĠAndrews":11728,"ĠCastle":11729,"ĠMetal":11730,"modern":11731,"ĠCannon":11732,"ĠBrando":11733,"ĠBeauty":11734,"ĠPhillip":11735,"Ġdisguise":11736,"ĠRecommended":11737,"ĠDrive":11738,"Ġshouting":11739,"Ġpirate":11740,"Ġcaricature":11741,"Ġexpedition":11742,",,":11743,"Boy":11744,"MAN":11745,"direct":11746,"fet":11747,"lies":11748,"uke":11749,"Ġtang":11750,"Ġsab":11751,"Ġwre":11752,"Ġfurn":11753,"Ġmall":11754,"Ġcue":11755,"Ġpap":11756,"Ġpump":11757,"Ġloo":11758,"Ġlord":11759,"Ġlux":11760,"ĠIF":11761,"Ġstumbles":11762,"ĠSoc":11763,"amount":11764,"ĠBunny":11765,"ĠMurd":11766,"unted":11767,"ĠDix":11768,"Ġsums":11769,"agues":11770,"ĠGrey":11771,"Ġrates":11772,"acks":11773,"intage":11774,"Ġadjust":11775,"getic":11776,"Ġpointing":11777,"ĠAlon":11778,"Ġaddress":11779,"incher":11780,"Ġversus":11781,"ĠScor":11782,"nothing":11783,"Ġviolin":11784,"Ġcopied":11785,"Ġcraw":11786,"Ġdefinition":11787,"Ġcounts":11788,"Ġexceptions":11789,"ĠNewman":11790,"ancho":11791,"Ġprovocative":11792,"Ġmorbid":11793,"Ġstruct":11794,"ĠBenny":11795,"Ġcircle":11796,"ylan":11797,"Ġjudging":11798,"Ġmasses":11799,"Ġjumped":11800,"ĠMcCl":11801,"ĠNicole":11802,"Ġambition":11803,"Ġfrightened":11804,"Ġconceived":11805,"ochester":11806,"ĠSidney":11807,"Ġdifficulty":11808,"Ġdilemma":11809,"!\".":11810,"Har":11811,"cam":11812,"cano":11813,"gang":11814,"jay":11815,"nell":11816,"your":11817,"Ġ!!":11818,"rehe":11819,"Ġmute":11820,"onies":11821,"ician":11822,"Ġyelling":11823,"ĠAx":11824,"ĠAz":11825,"ĠSay":11826,"ĠSave":11827,"ĠSummer":11828,"ĠSuddenly":11829,"ĠMun":11830,"ifetime":11831,"Ġabortion":11832,"ĠPau":11833,"ĠRush":11834,"asting":11835,"ĠFIL":11836,"Ġordered":11837,"umn":11838,"ĠGOD":11839,"Ġrides":11840,"Ġworship":11841,"ĠEastern":11842,"tending":11843,"Ġprey":11844,"assy":11845,"Ġplotting":11846,"Ġrif":11847,"Ġsurgery":11848,"ĠMarple":11849,"Ġhopelessly":11850,"ĠSpike":11851,"comings":11852,"remely":11853,"ika":11854,"clim":11855,"Ġcombines":11856,"Ġpositively":11857,"Joe":11858,"ĠNightmare":11859,"Ġreplies":11860,"ĠLaurel":11861,"Ġcoincidence":11862,"mittedly":11863,"Ġcontribute":11864,"ĠHuston":11865,"ĠTemple":11866,"AB":11867,"Film":11868,"Movie":11869,"avery":11870,"cers":11871,"eur":11872,"overs":11873,"vi":11874,"infeld":11875,"Ġshat":11876,"Ġok":11877,"Ġbars":11878,"Ġbald":11879,"Ġpic":11880,"Ġlunch":11881,"Ġghetto":11882,"ĠTele":11883,"ĠAriz":11884,"Ġthieves":11885,"uration":11886,"urate":11887,"ĠMust":11888,"ĠMod":11889,"ĠDud":11890,"emesis":11891,"ainted":11892,"Ġdepend":11893,"ĠPost":11894,"ĠRat":11895,"andra":11896,"Ġouting":11897,"Ġshorter":11898,"Ġshed":11899,"ĠKN":11900,"ĠKids":11901,"arest":11902,"Ġprequel":11903,"Ġadore":11904,"bergh":11905,"raph":11906,"Ġshaking":11907,"ĠShell":11908,"Ġaddiction":11909,"umbo":11910,"Ġgrabs":11911,"neyed":11912,"Ġgenerated":11913,"Ġdepression":11914,"Ġstrongest":11915,"ĠShad":11916,"maid":11917,"Ġmotive":11918,"Ġtransform":11919,"reston":11920,"Ġsurvives":11921,"Ġ1992":11922,"Ġ1998":11923,"ĠIMDB":11924,"Ġdelightfully":11925,"Ġpunches":11926,"Nothing":11927,"mmm":11928,"Ġobjective":11929,"ĠSnipes":11930,"ĠSnoopy":11931,"Ġknocked":11932,"ĠTimothy":11933,"Ġdeserted":11934,"ĠShore":11935,"ĠAstaire":11936,"Ġpretends":11937,"ĠOlivier":11938,"Ġeconomic":11939,"People":11940,"ĠFurthermore":11941,"Ġacknowled":11942,"ĠHindi":11943,"Ġunsatisfying":11944,"Col":11945,"rary":11946,"uation":11947,"wes":11948,"ĠTIM":11949,"ooby":11950,"ĠBird":11951,"ĠCR":11952,"ĠCris":11953,"Ġabst":11954,"andon":11955,"ĠGover":11956,"ĠEis":11957,"Ġ1000":11958,"ĠKin":11959,"Ġentering":11960,"atherface":11961,"Ġcontaining":11962,"rities":11963,"deal":11964,"Ġlasting":11965,"Ġglim":11966,"Ġmonks":11967,"ĠClose":11968,"ĠZe":11969,"ĠMcQueen":11970,"ypical":11971,"ĠConst":11972,"ĠPearl":11973,"Ġcomplic":11974,"Ġsummar":11975,"Ġbargain":11976,"Ġ1984":11977,"ĠExp":11978,"black":11979,"Ġ1939":11980,"Ġsquee":11981,"ĠNorris":11982,"ĠLohan":11983,"Ġhooker":11984,"ĠJudge":11985,"Ġstretched":11986,"Ġpetty":11987,"ummies":11988,"Ġbreast":11989,"ĠAndrea":11990,"ĠRicky":11991,"Ġinhab":11992,"ĠPictures":11993,"Ġdestroys":11994,"Ġdeceased":11995,"ĠGeorgia":11996,"Ġgorilla":11997,"ĠThurman":11998,"99":11999,"?\".":12000,"New":12001,"Sorry":12002,"voc":12003,"ĠâĢ":12004,"isha":12005,"erve":12006,"Ġpion":12007,"Ġpushes":12008,"another":12009,"ĠBost":12010,"ĠComb":12011,"ĠCOM":12012,"ĠHook":12013,"ĠDall":12014,"oodoo":12015,"ĠNIGHT":12016,"arde":12017,"ourney":12018,"Ġendlessly":12019,"Ġremove":12020,"Ġshoulders":12021,"ansas":12022,"Ġdecap":12023,"Ġexploring":12024,"ĠNote":12025,"symp":12026,"Ġreported":12027,"Ġcharged":12028,"ĠIslam":12029,"Ġslee":12030,"Ġclaiming":12031,"ĠGlenn":12032,"Ġsurroundings":12033,"Ġkidnap":12034,"Ġsources":12035,"Ġhammy":12036,"anoia":12037,"Ġabandon":12038,"uzzy":12039,"Ġisolation":12040,"Ġwanders":12041,"Ġdistribution":12042,"Ġreunion":12043,"Ġventure":12044,"Ġwheelchair":12045,"Ġingenious":12046,"ĠTitanic":12047,"Ġbasketball":12048,"Ġgrateful":12049,"ĠPoirot":12050,"Ġhockey":12051,"Ġmisguided":12052,"Bec":12053,"bable":12054,"lime":12055,"person":12056,"erman":12057,"Ġfishing":12058,"Ġmail":12059,"Ġbreed":12060,"Ġponder":12061,"anie":12062,"arters":12063,"Ġnick":12064,"ĠSN":12065,"ĠSky":12066,"ĠMinn":12067,"ĠCorn":12068,"ĠHulk":12069,"ĠHepburn":12070,"Ġathle":12071,"Ġscandal":12072,"Ġjarring":12073,"olt":12074,"ĠOdd":12075,"Ġmanifest":12076,"placed":12077,"Ġrecre":12078,"athon":12079,"Ġcomputers":12080,"Ġnewcom":12081,"Ġproduces":12082,"Ġsmug":12083,"ibbe":12084,"rospect":12085,"Ġstandout":12086,"isode":12087,"ĠSpring":12088,"Ġcollective":12089,"Ġzoom":12090,"Ġconsiderably":12091,"ĠEverybody":12092,"ilipp":12093,"ĠPete":12094,"Ġ1985":12095,"Ġbrainless":12096,"Ġimmediate":12097,"ĠAgatha":12098,"ĠApril":12099,"Ġroutines":12100,"ĠVictorian":12101,"ĠfiancÃ©e":12102,"Ġglamorous":12103,"Ġbeside":12104,"ĠUltimately":12105,"Ġdysfunctional":12106,"Ġastronaut":12107,"Ġwisdom":12108,"Ġdisastrous":12109,"much":12110,"pres":12111,"vas":12112,"esar":12113,"Ġster":12114,"cemi":12115,"cht":12116,"illand":12117,"ĠCushing":12118,"ĠHU":12119,"ĠPS":12120,"ĠFive":12121,"ĠNiel":12122,"Ġunlikable":12123,"ĠEk":12124,"Ġmanga":12125,"Ġque":12126,"thon":12127,"eren":12128,"Ġflood":12129,"osterous":12130,"ĠStr":12131,"ĠDef":12132,"ĠDeep":12133,"ĠClock":12134,"Ġexpressed":12135,"ĠChristine":12136,"Ġswearing":12137,"ĠElvis":12138,"ĠBrody":12139,"Ġ1997":12140,"Ġstunned":12141,"ĠSimpsons":12142,"Ġunlikeable":12143,"import":12144,"ĠMelissa":12145,"ĠGarland":12146,"Ġsymbolic":12147,"hobia":12148,"Ġdemanding":12149,"Ġinteractions":12150,"Ġscratch":12151,"Ġtempted":12152,"ĠPayne":12153,"Ġwardrobe":12154,"Ġspaceship":12155,"ĠTierney":12156,"Er":12157,"Rec":12158,"cat":12159,"normal":12160,"pion":12161,"uki":12162,"Ġ>":12163,"Ġmales":12164,"itus":12165,"Ġpie":12166,"edge":12167,"stood":12168,"strated":12169,"ĠThai":12170,"Ġrender":12171,"Ġheap":12172,"owered":12173,"ĠBrig":12174,"ĠCourt":12175,"ersed":12176,"ĠDiv":12177,"ĠDee":12178,"Ġvoted":12179,"ĠLoren":12180,"ĠPho":12181,"ĠFal":12182,"ĠFro":12183,"ĠNBC":12184,"acha":12185,"Ġafterward":12186,"Ġawfully":12187,"Ġ28":12188,"Ġtraffic":12189,"Ġsubtext":12190,"Ġsublime":12191,"Ġshortcomings":12192,"ĠClo":12193,"anche":12194,"Ġpathos":12195,"Ġhilarity":12196,"Ġroommate":12197,"Ġ2002":12198,"Ġmistress":12199,"claim":12200,"ĠSmall":12201,"Ġimmortal":12202,"ĠMonroe":12203,"Ġcontinuing":12204,"Ġinternal":12205,"Ġservices":12206,"Ġimplied":12207,"ĠHayden":12208,"Ġlaunch":12209,"genre":12210,"Ġsafely":12211,"Ġemerge":12212,"ĠFerr":12213,"Ġreferring":12214,"Ġaspiring":12215,"Ġhungry":12216,"Toole":12217,"ĠCarey":12218,"Ġbefriends":12219,"Alien":12220,"ĠAltman":12221,"Henry":12222,"100":12223,"rument":12224,"sa":12225,"vag":12226,"inous":12227,"rene":12228,"Ġcaut":12229,"ouge":12230,"Ġdent":12231,"Ġdresses":12232,"utions":12233,"ghter":12234,"aders":12235,"ĠMira":12236,"ĠDal":12237,"Ġjock":12238,"Ġvary":12239,"ĠFul":12240,"isty":12241,"reated":12242,"thought":12243,"Ġdirections":12244,"ĠVC":12245,"Ġremakes":12246,"actory":12247,"ubby":12248,"Ġhandles":12249,"Ġ3000":12250,"Ġinstrument":12251,"Ġshotgun":12252,"Ġinsists":12253,"ĠChad":12254,"Ġfathers":12255,"Ġmisfortun":12256,"ĠCarroll":12257,"Ġcloset":12258,"Ġinfin":12259,"ĠElm":12260,"Ġapproaches":12261,"ĠEnid":12262,"Ġdesigner":12263,"Ġdancers":12264,"ĠGarner":12265,"Ġdebt":12266,"Ġconfronted":12267,"Anyone":12268,"Ġseparated":12269,"ĠToday":12270,"Ġinevitably":12271,"Ġcommitment":12272,"Ġpuppets":12273,"Ġignorance":12274,"Ġsteady":12275,"ĠBinoche":12276,"Ġdeleted":12277,"ĠArizona":12278,"Because":12279,"Cra":12280,"DER":12281,"Hell":12282,"IV":12283,"Lou":12284,"chant":12285,"esse":12286,"Ġpianist":12287,"Ġniece":12288,"ilot":12289,"ĠTa":12290,"ĠSide":12291,"urg":12292,"ĠMia":12293,"ĠHOR":12294,"ĠWE":12295,"ĠDylan":12296,"Ġabund":12297,"Ġvintage":12298,"ĠFil":12299,"ĠNon":12300,"ĠOR":12301,"Ġpercent":12302,"ĠKor":12303,"soka":12304,"Ġarist":12305,"ccer":12306,"Ġshoulder":12307,"Ġincon":12308,"Ġsounding":12309,"Ġgloom":12310,"ĠMaris":12311,"ĠForrest":12312,"Ġtitular":12313,"Ġrepulsive":12314,"comes":12315,"Ġregularly":12316,"ĠAdrian":12317,"Ġidol":12318,"Ġcatchy":12319,"boys":12320,"ĠSergio":12321,"Ġobsessive":12322,"Ġabsurdity":12323,"ĠGarfield":12324,"remlins":12325,"ippi":12326,"Ġveterans":12327,"Ġassociate":12328,"Ġtaped":12329,"ĠConsidering":12330,"Ġblatantly":12331,"ĠAkbar":12332,"upert":12333,"ĠBridget":12334,"ĠFROM":12335,"Ġvigil":12336,"Ġrhythm":12337,"IST":12338,"Lau":12339,"directed":12340,"fig":12341,"gom":12342,"hilar":12343,"ohan":12344,"Ġomin":12345,"erable":12346,"Ġdressing":12347,"ĠIV":12348,"Ġstumbled":12349,"Ġyawn":12350,"ĠAS":12351,"ĠAven":12352,"ĠSister":12353,"ĠBir":12354,"elope":12355,"Ġouter":12356,"ĠEli":12357,"geant":12358,"abol":12359,"Ġrope":12360,"Ġadvers":12361,"Ġcharacterizations":12362,"ection":12363,"Ġcasts":12364,"Ġlonging":12365,"dead":12366,"Ġbug":12367,"Ġhelpful":12368,"Ġglued":12369,"ĠReggie":12370,"iterally":12371,"Ġconvention":12372,"Ġconstit":12373,"ĠKeep":12374,"ĠPlace":12375,"Ġfilmmaking":12376,"Ġuncons":12377,"Ġsigned":12378,"Ġbabies":12379,"Ġcommunicate":12380,"ĠMadsen":12381,"Ġunsus":12382,"Ġapproaching":12383,"Ġpreposterous":12384,"Ġpsychology":12385,"Ġdescribing":12386,"ĠNatalie":12387,"ICK":12388,"Ġearnest":12389,"Ġhackneyed":12390,"Ġloyalty":12391,"Ġsurfing":12392,"Ġconveniently":12393,"ĠBuscemi":12394,"Ġinfected":12395,"ĠCinderella":12396,"ĠScotland":12397,"Ġshifts":12398,"ĠSophie":12399,"ĠLuckily":12400,"ĠCusack":12401,"90":12402,"FF":12403,"Jim":12404,"bin":12405,"gus":12406,"gically":12407,"lund":12408,"upt":12409,"Ġ{":12410,"Ġtatt":12411,"Ġturt":12412,"Ġakin":12413,"ndo":12414,"Ġfur":12415,"Ġcher":12416,"Ġduel":12417,"Ġnit":12418,"Ġreign":12419,"Ġstray":12420,"ĠSweet":12421,"ĠBottom":12422,"Ġrab":12423,"ĠJoey":12424,"Ġexceed":12425,"ĠAss":12426,"Ġhandling":12427,"Ġcamps":12428,"scapes":12429,"Ġpatron":12430,"ĠPerfect":12431,"Ġsuggestion":12432,"Ġexploits":12433,"Ġdesigns":12434,"writing":12435,"Ġconduct":12436,"Ġdiverse":12437,"Ġdrove":12438,"Ġindustrial":12439,"ĠFarrow":12440,"ĠWesterns":12441,"Ġexplosive":12442,"ĠPalma":12443,"Ġnerd":12444,"Ġgear":12445,"Ġuniversity":12446,"ĠEntertain":12447,"Ġethnic":12448,"ĠDaisy":12449,"Ġsuburban":12450,"Ġaggressive":12451,"ĠJolie":12452,"Ġgambling":12453,"Ġtactics":12454,"EM":12455,"Mon":12456,"TO":12457,"prom":12458,"rates":12459,"Ġbilling":12460,"aron":12461,"ĠAy":12462,"ĠABC":12463,"ĠMiami":12464,"ĠLum":12465,"ĠLiam":12466,"ĠRex":12467,"ĠFF":12468,"ĠFight":12469,"redited":12470,"Ġproced":12471,"ĠNed":12472,"Ġleap":12473,"Ġlod":12474,"apore":12475,"Ġflashes":12476,"beck":12477,"Ġunderm":12478,"Ġripping":12479,"Ġcoupled":12480,"ĠAlone":12481,"Ġinstances":12482,"Ġinterrog":12483,"Ġglance":12484,"ĠBlond":12485,"ĠBlues":12486,"Ġcollaps":12487,"Ġnatives":12488,"ĠShame":12489,"*****":12490,"ĠCraven":12491,"Ġdamaged":12492,"noir":12493,"Ġrapidly":12494,"Ġescaping":12495,"Ġenergetic":12496,"Ġcomparisons":12497,"Ġunexpectedly":12498,"Ġcaliber":12499,"addin":12500,"Ġlesbians":12501,"ĠClearly":12502,"Ġeducated":12503,"ĠWinter":12504,"ĠDogs":12505,"Ġtranslated":12506,"Ġkissing":12507,"Ġimaginable":12508,"ĠVinnie":12509,"ĠMidler":12510,"Ġinexplicable":12511,"Ġfulfill":12512,"Ġcycle":12513,"Ġfortunate":12514,"ĠEgyptian":12515,"ĠNeedless":12516,"Ġacclaimed":12517,"Ġunimaginative":12518,"Ġwidescreen":12519,"ĠWagner":12520,"ĠFILM":12521,".).":12522,"City":12523,"FO":12524,"Im":12525,"Mean":12526,"Sat":12527,"fare":12528,"ufact":12529,"inction":12530,"Ġbilled":12531,"have":12532,"haired":12533,"Ġdwell":12534,"Ġren":12535,"ima":12536,"sexual":12537,"Ġstairs":12538,"ĠSleep":12539,"ĠBright":12540,"Ġnoteworthy":12541,"ĠHon":12542,"ulse":12543,"unte":12544,"usp":12545,"olo":12546,"ĠLiv":12547,"ĠLadd":12548,"ĠLaughton":12549,"ortions":12550,"ĠRandy":12551,"ĠFans":12552,"Ġorg":12553,"ĠEst":12554,"ĠOct":12555,"ĠOly":12556,"Ġnoises":12557,"perhaps":12558,"Ġpoem":12559,"Ġprev":12560,"Ġ''":12561,"ĠHeck":12562,"ĠInter":12563,"Ġspecially":12564,"Ġmayor":12565,"issippi":12566,"Ġresume":12567,"Ġcomeback":12568,"Ġboasts":12569,"Ġepit":12570,"ĠBeowulf":12571,"Ġglaring":12572,"Ġmessy":12573,"ĠLeone":12574,"Ġmysteriously":12575,"Ġbreakdown":12576,"Ġsnob":12577,"Ġlanding":12578,"ridge":12579,"Ġrobbed":12580,"Ġprogramme":12581,"ĠMatthau":12582,"Ġcoward":12583,"ĠWHY":12584,"Ġdivorced":12585,"falls":12586,"Ġinconsist":12587,"Ġdevastating":12588,"Ġsarcastic":12589,"Ġsubstantial":12590,"Ġexquisite":12591,"Bob":12592,"Cons":12593,"GH":12594,"Watching":12595,"lord":12596,"mpt":12597,"Ġbum":12598,"Ġcoc":12599,"Ġcattle":12600,"Ġpimp":12601,"Ġdates":12602,"Ġlush":12603,"Ġrear":12604,"Ġwash":12605,"ĠAut":12606,"ĠSOME":12607,"Ġbutler":12608,"Ġ('":12609,"ulating":12610,"ĠDist":12611,"ĠDaffy":12612,"Ġabomination":12613,"ĠRol":12614,"ĠRochester":12615,"ĠFincher":12616,"hang":12617,"ĠKeller":12618,"Ġclut":12619,"acles":12620,"Ġoffbeat":12621,"Ġrealm":12622,"Ġfluff":12623,"Ġslavery":12624,"Ġcontempt":12625,"Ġsimplicity":12626,"ĠAsia":12627,"Ġhandic":12628,"Ġshoe":12629,"Ġwarming":12630,"ĠBeery":12631,"Ġchoppy":12632,"Ġportrayals":12633,"Ġsynd":12634,"Ġregion":12635,"Ġ75":12636,"Ġdemean":12637,"Ġaccepts":12638,"ĠBravo":12639,"Ġenchan":12640,"ĠJulian":12641,"ĠEmmanuelle":12642,"Ġmassacre":12643,"Three":12644,"ĠCrus":12645,"ĠCrumb":12646,"Ġlaun":12647,"Ġgender":12648,"Ġtunnel":12649,"Ġredund":12650,"ĠSundance":12651,"Ġholocaust":12652,"Ġjacket":12653,"ĠConfeder":12654,"Ġeternal":12655,"Ġdisliked":12656,"Ġexterior":12657,"ĠSoderbergh":12658,"sympathetic":12659,"App":12660,"Jean":12661,"fan":12662,"kers":12663,"sis":12664,"sorry":12665,"Ġwing":12666,"Ġwounds":12667,"Ġfaint":12668,"Ġfodder":12669,"Ġcripp":12670,"anes":12671,"atable":12672,"oma":12673,"ĠARE":12674,"ĠMul":12675,"Ġalley":12676,"Ġvign":12677,"ĠPC":12678,"ĠJet":12679,"ĠJagger":12680,"Ġhers":12681,"ĠNess":12682,"Ġupcoming":12683,"Ġclerk":12684,"Ġdisreg":12685,"Ġseeming":12686,"Ġflam":12687,"Ġawak":12688,"being":12689,"Ġincest":12690,"Ġchee":12691,"Ġcomplet":12692,"scene":12693,"Ġheartfelt":12694,"Ġconventions":12695,"ĠLevy":12696,"umpy":12697,"ĠDoor":12698,"Ġterrorism":12699,"ĠScottish":12700,"Ġrecords":12701,"Ġnoticeable":12702,"Ġtestament":12703,"Ġbiography":12704,"does":12705,"ĠSarandon":12706,"Ġdespicable":12707,"Ġseduct":12708,"ĠParad":12709,"Ġvastly":12710,"Ġenhanced":12711,"ĠOffice":12712,"ĠGiallo":12713,"ĠWonderful":12714,"Ġpublished":12715,"Ġdubious":12716,"Ġrelentless":12717,"ĠBunuel":12718,"gomery":12719,"Mat":12720,"Saw":12721,"oves":12722,"whe":12723,"Ġfer":12724,"Ġfade":12725,"itable":12726,"Ġpenn":12727,"Ġgym":12728,"Ġnomin":12729,"almost":12730,"idan":12731,"ĠSara":12732,"ĠMick":12733,"ĠMalk":12734,"ĠWa":12735,"ĠWATCH":12736,"Ġplate":12737,"Ġvon":12738,"Ġvocal":12739,"estone":12740,"ĠPreston":12741,"ĠRent":12742,"Ġintentional":12743,"acking":12744,"ĠEt":12745,"hans":12746,"Ġshining":12747,"odd":12748,"Ġrealities":12749,"Ġpartially":12750,"ubble":12751,"lix":12752,"Ġcompleted":12753,"ĠChief":12754,"Ġexplode":12755,"Ġinsurance":12756,"Ġmatched":12757,"ĠDVDs":12758,"Ġacademy":12759,"ĠScooby":12760,"Ġedgy":12761,"Ġreports":12762,"Ġopenly":12763,"Ġstudied":12764,"Ġhopeful":12765,"ĠSpoilers":12766,"axi":12767,"Ġadmits":12768,"Ġdeserving":12769,"cheek":12770,"ĠShot":12771,"Ġgrandson":12772,"Ġposters":12773,"know":12774,"Ġ1994":12775,"Ġwindows":12776,"ĠMadonna":12777,"Ġdepths":12778,"Ġ1969":12779,"Ġmannerisms":12780,"ĠSpeaking":12781,"Ġcells":12782,"Ġyouthful":12783,"ĠOldman":12784,"achelor":12785,"Ġfabric":12786,"Ġcruelty":12787,"Ġbetrayed":12788,"Ġsubsequently":12789,"Ġharmless":12790,"Ġgroan":12791,"Ġphenomenon":12792,"Ġchampion":12793,"Ġinconsistent":12794,"Ġwrestling":12795,"ĠPsycho":12796,"ĠHercules":12797,"ĠBoston":12798,"Ghost":12799,"Yet":12800,"hu":12801,"mund":12802,"Ġwire":12803,"orters":12804,"Ġdreck":12805,"Ġinjust":12806,"Ġlaser":12807,"arched":12808,"Ġhapless":12809,"Ġasylum":12810,"Ġangu":12811,"ĠBach":12812,"ĠBrent":12813,"ĠMach":12814,"ĠWee":12815,"Ġvotes":12816,"ĠPoll":12817,"ĠGO":12818,"Ġric":12819,"Ġgoods":12820,"Ġlock":12821,"nth":12822,"icker":12823,"Ġpose":12824,"Ġdisab":12825,"Ġrealised":12826,"Ġslam":12827,"aughn":12828,"Ġindication":12829,"Ġschools":12830,"ĠLeatherface":12831,"ĠSeym":12832,"Ġparanoia":12833,"Ġtransformed":12834,"Ġuncut":12835,"Ġvictory":12836,"Ġacceptance":12837,"Ġ1989":12838,"Ġerror":12839,"Ġcommunication":12840,"ĠGoodman":12841,"Ġmidst":12842,"Ġaffecting":12843,"ĠMiche":12844,"ĠSandra":12845,"Ġprograms":12846,"?!?!":12847,"Ġaffairs":12848,"Ġmobster":12849,"Ġemployed":12850,"Ġcalcul":12851,"Ġbanter":12852,"hetically":12853,"ĠWHAT":12854,"Ġcrooked":12855,"ĠToronto":12856,"production":12857,"Ġjealousy":12858,"Ġrendition":12859,"Ġrendered":12860,"Ġencourage":12861,"Ġsavage":12862,"ĠWORST":12863,"Ġcustomers":12864,"ĠAccording":12865,"Ġlegitimate":12866,"Ġominous":12867,"18":12868,"Lost":12869,"OY":12870,"despite":12871,"nia":12872,"uate":12873,"uary":12874,"Ġtent":12875,"rection":12876,"Ġwart":12877,"Ġwider":12878,"Ġfires":12879,"itivity":12880,"Ġcrown":12881,"Ġdut":12882,"lem":12883,"level":12884,"ĠTeen":12885,"cending":12886,"urous":12887,"ĠWife":12888,"ĠDiamond":12889,"Ġjaded":12890,"elie":12891,"antha":12892,"ĠLock":12893,"ĠRab":12894,"ĠRider":12895,"inducing":12896,"ptember":12897,"osse":12898,"vester":12899,"Ġflavor":12900,"ĠAlas":12901,"Ġowners":12902,"Ġsmarter":12903,"Ġorigins":12904,"Ġshocks":12905,"Ġassured":12906,"IND":12907,"Ġsuspension":12908,"ĠHerbert":12909,"ĠGerald":12910,"Ġbrooding":12911,"Ġexploited":12912,"ĠExorcist":12913,"blown":12914,"Ġtasteless":12915,"Ġautobi":12916,"Joan":12917,"Ġgrounds":12918,"Ġrescued":12919,"ĠStephan":12920,"Robin":12921,"ĠRingu":12922,"omeday":12923,"Ġmasks":12924,"Ġenhance":12925,"Ġdepending":12926,"ographical":12927,"Ġbewild":12928,"Ġaesthetic":12929,"Ġunsuccess":12930,"Ġpedestrian":12931,"16":12932,"Friday":12933,"Frank":12934,"VIL":12935,"vation":12936,"vability":12937,"Ġinmates":12938,"ĠTam":12939,"rable":12940,"advert":12941,"urring":12942,"Ġnotices":12943,"ĠCirc":12944,"olved":12945,"ĠLifetime":12946,"oper":12947,"ĠRaim":12948,"Ġprosec":12949,"Ġrooting":12950,"ivals":12951,"Ġapply":12952,"ashbuck":12953,"Ġwarrior":12954,"ĠDeM":12955,"ĠBrun":12956,"Ġquestioning":12957,"ĠRichardson":12958,"ĠMacL":12959,"Ġradical":12960,"ĠHighlander":12961,"Ġstopping":12962,"marine":12963,"Ġastounding":12964,"Ġdeny":12965,"Ġdetermination":12966,"Ġconvinces":12967,"Ġfleet":12968,"ĠCannibal":12969,"Ġdepends":12970,"ĠPierce":12971,"Ġmisunderstood":12972,"Ġinherit":12973,"Ġrestrained":12974,"ĠElliot":12975,"iblings":12976,"ĠHungarian":12977,"Ġconveys":12978,"Ġfantasies":12979,"Ġculmin":12980,"Ġunsuspecting":12981,"ĠEntertainment":12982,"!?":12983,"Dark":12984,"DVD":12985,"Mc":12986,"Mark":12987,"cor":12988,"fus":12989,"kill":12990,"math":12991,"ĠÃ":12992,"really":12993,"Ġwine":12994,"Ġfo":12995,"Ġpiv":12996,"Ġpatch":12997,"Ġgray":12998,"along":12999,"Ġrelev":13000,"Ġseedy":13001,"ĠSlo":13002,"ĠBoll":13003,"Ġattended":13004,"Ġjet":13005,"emon":13006,"Ġdose":13007,"Ġvile":13008,"ĠLine":13009,"ĠPass":13010,"ĠRath":13011,"Ġconj":13012,"ĠGould":13013,"Ġrational":13014,"Ġunem":13015,"reature":13016,"ardom":13017,"ables":13018,"Ġdismal":13019,"Ġfles":13020,"ĠView":13021,"ĠRevolution":13022,"ĠÂ£":13023,"Ġsteer":13024,"ĠNeeson":13025,"Ġinspire":13026,"Ġbabe":13027,"Ġinterviewed":13028,"Ġlegacy":13029,"Ġoffend":13030,"Ġdistracted":13031,"ĠTrevor":13032,"Ġexposure":13033,"Charlie":13034,"Ġpreviews":13035,"ĠMontgomery":13036,"Ġcanceled":13037,"enzie":13038,"Ġanalysis":13039,"ĠElliott":13040,"Ġpremiere":13041,"busters":13042,"Ġwilderness":13043,"ĠSeymour":13044,"House":13045,"best":13046,"fiction":13047,"mn":13048,"names":13049,"rine":13050,"Ġsanity":13051,"Ġwander":13052,"itated":13053,"Ġdrew":13054,"asi":13055,"ĠIQ":13056,"leader":13057,"Ġeats":13058,"Ġnur":13059,"Ġnarc":13060,"ayed":13061,"ĠAqu":13062,"Ġselected":13063,"amir":13064,"ĠMountain":13065,"aky":13066,"quette":13067,"ĠFarre":13068,"Ġoutfits":13069,"ĠNak":13070,"Ġunion":13071,"ĠKiss":13072,"Ġpocket":13073,"Ġdont":13074,"Ġblunt":13075,"ĠHead":13076,"Ġslack":13077,"Ġtrace":13078,"Ġclassy":13079,"Ġaudition":13080,"Ġcrashing":13081,"ĠBear":13082,"Ġdramatically":13083,"ĠBlade":13084,"ĠÂĹ":13085,"Ġremembering":13086,"Ġavid":13087,"Ġprofile":13088,"Ġpromote":13089,"Ġunfamiliar":13090,"owski":13091,"Ġranch":13092,"Ġextravag":13093,"Ġcolleague":13094,"ĠSimply":13095,"Ġstatements":13096,"ESS":13097,"Ġassuming":13098,"Ġswords":13099,"Ġvolunte":13100,"ĠRodri":13101,"Ġorganization":13102,"Ġexperiencing":13103,"ĠBaron":13104,"ĠSunset":13105,"Ġpursued":13106,"ĠThankfully":13107,"ĠJacques":13108,"Ġelevator":13109,"Ġborrowed":13110,"documentary":13111,"ĠThailand":13112,"Ab":13113,"Life":13114,"Pretty":13115,"Red":13116,"west":13117,"Ġ!!!":13118,"Ġfifties":13119,"Ġmummy":13120,"Ġbastard":13121,"Ġtops":13122,"atile":13123,"ĠIran":13124,"Ġbeard":13125,"Ġstake":13126,"Ġstare":13127,"ĠBudd":13128,"ĠWing":13129,"Ġjoint":13130,"Ġdeft":13131,"ĠPBS":13132,"ĠRace":13133,"ĠRupert":13134,"ĠFel":13135,"ĠFaw":13136,"Ġrant":13137,"Ġunm":13138,"ĠOUT":13139,"Ġnod":13140,"ĠKings":13141,"ranged":13142,"Ġartif":13143,"Ġunderstands":13144,"Ġstrings":13145,"Ġparade":13146,"Ġswamp":13147,"Ġadmission":13148,"Ġmorons":13149,"Ġsteel":13150,"Ġindepend":13151,"Ġdescent":13152,"Ġharass":13153,"Ġ1995":13154,"ĠTwilight":13155,"Ġneglected":13156,"ĠPatricia":13157,"Ġcomplexity":13158,"Ġhangs":13159,"ĠDuncan":13160,"ĠRonald":13161,"Ġconnections":13162,"Ġmasked":13163,"Ġconcentrate":13164,"Ġrampage":13165,"Ġsacrifices":13166,"Ġlimitations":13167,"Ġinstitution":13168,"fetched":13169,"important":13170,"!,":13171,"Based":13172,"Hard":13173,"Much":13174,"dest":13175,"sub":13176,"viol":13177,"Ġtheories":13178,"Ġwo":13179,"Ġbones":13180,"esque":13181,"Ġtoken":13182,"Ġdual":13183,"atement":13184,"omber":13185,"ilk":13186,"Ġmold":13187,"Ġstim":13188,"ĠMP":13189,"ĠMafia":13190,"ĠCode":13191,"ĠHans":13192,"ĠDum":13193,"usts":13194,"ifty":13195,"Ġsugar":13196,"Ġkar":13197,"ĠLot":13198,"quin":13199,"quire":13200,"Ġproving":13201,"Ġlends":13202,"ĠKaj":13203,"ourge":13204,"ruce":13205,"Ġdisin":13206,"assic":13207,"Ġusers":13208,"Ġbless":13209,"Ġspawn":13210,"Ġflashy":13211,"ĠVik":13212,"ĠVaughn":13213,"Ġentered":13214,"rise":13215,"Ġterrified":13216,"Ġdelicious":13217,"ovsky":13218,"Ġheadache":13219,"ĠMarlow":13220,"incer":13221,"arnation":13222,"Ġphones":13223,"Ġ48":13224,"Ġpatients":13225,"Ġmedieval":13226,"Ġreminder":13227,"Ġforgiven":13228,"Ġrobbers":13229,"ALLY":13230,"Ġ1974":13231,"Ġ1978":13232,"Ġintroducing":13233,"Ġharrowing":13234,"Ġneglect":13235,"hames":13236,"Ġineffect":13237,"Ġhybrid":13238,"ĠVanessa":13239,"Ġcriticize":13240,"ĠGarcia":13241,"winning":13242,"Ġdistraction":13243,"ĠFear":13244,"ĠSecondly":13245,"ĠColumbia":13246,"Ġstabbed":13247,"Ġtolerable":13248,"Charles":13249,"ĠCrowe":13250,"Ġdumped":13251,"ĠNikita":13252,"Ġgeek":13253,"Ġshelter":13254,"Ġautomatically":13255,"Ġeggs":13256,"Ġuniformly":13257,"Ġmaxim":13258,"Ġrelevance":13259,"\"(":13260,"\"--":13261,"Over":13262,"Sl":13263,"Up":13264,"ded":13265,"mel":13266,"wa":13267,"Ã³":13268,"Ġsane":13269,"Ġowes":13270,"Ġtooth":13271,"Ġdun":13272,"Ġinformed":13273,"steps":13274,"ilation":13275,"rade":13276,"Ġsew":13277,"Ġthug":13278,"Ġliqu":13279,"ĠMalt":13280,"ĠCou":13281,"ifune":13282,"Ġactive":13283,"Ġaltered":13284,"Ġvoc":13285,"ĠLt":13286,"ĠRig":13287,"Ġconco":13288,"ĠNiven":13289,"Ġuncover":13290,"Ġmanufact":13291,"Ġshred":13292,"sored":13293,"abre":13294,"ileen":13295,"Ġrealization":13296,"Ġspree":13297,"ĠStiller":13298,"spiring":13299,"apper":13300,"Ġbuzz":13301,"Ġexpectation":13302,"Ġmighty":13303,"aneous":13304,"Ġretrie":13305,"otto":13306,"Ġheartwarming":13307,"Ġbudgets":13308,"ĠNewton":13309,"Ġinfilt":13310,"ĠCharl":13311,"ĠKeane":13312,"Ġ2008":13313,"Ġlandmark":13314,"balls":13315,"Ġpleasing":13316,"Ġ1979":13317,"Ġaccepting":13318,"royd":13319,"ĠPhilipp":13320,"ĠMonkey":13321,"ĠAgent":13322,"Ġpractical":13323,"Ġhostile":13324,"ĠSciFi":13325,"Ġdimin":13326,"Ġmachines":13327,"ĠLewton":13328,"ĠTerrible":13329,"Ġsplatter":13330,"Ġmarrying":13331,"ĠYOUR":13332,"Ġspinning":13333,"Everything":13334,"Ġstalking":13335,"Ġaccessible":13336,"Ġparallels":13337,"Ġfluid":13338,"Ġmiracle":13339,"ĠNetwork":13340,"Ġcelebrities":13341,"spirited":13342,"ĠYanke":13343,"Ġwartime":13344,"Are":13345,"AGE":13346,"IVE":13347,"TAIN":13348,"URE":13349,"iate":13350,"je":13351,"ridden":13352,"sized":13353,"Ġsiblings":13354,"Ġware":13355,"Ġol":13356,"Ġbent":13357,"Ġbulk":13358,"Ġcunning":13359,"encer":13360,"educ":13361,"anu":13362,"atography":13363,"Ġbeg":13364,"Ġrevis":13365,"addy":13366,"ĠSL":13367,"Ġhides":13368,"Ġhuh":13369,"urrent":13370,"ĠPir":13371,"respect":13372,"pton":13373,"Ġunsc":13374,"Ġunsympathetic":13375,"igious":13376,"Ġenl":13377,"ĠKudos":13378,"Ġclad":13379,"ouring":13380,"rup":13381,"Ġarray":13382,"Ġadul":13383,"Ġrealistically":13384,"Ġrainy":13385,"Ġoldest":13386,"Ġgiallo":13387,"Ġchew":13388,"Ġpron":13389,"oker":13390,"Ġcinemas":13391,"Ġconfir":13392,"Ġcommits":13393,"Ġskilled":13394,"Ġstudying":13395,"Ġremembers":13396,"Ġblacks":13397,"ĠBride":13398,"Ġsnake":13399,"Ġinspir":13400,"Ġlimp":13401,"ĠSwanson":13402,"loving":13403,"ĠHoliday":13404,"Ġconclusions":13405,"Ġ1968":13406,"Ġfrag":13407,"Ġinsults":13408,"ĠGoldberg":13409,"ĠLauren":13410,"Ġdiscussed":13411,"ĠSurely":13412,"Ġtightly":13413,"Ġtickets":13414,"RIBLE":13415,"www":13416,"Ġcontribution":13417,"Ġgarage":13418,"Ġinjury":13419,"Ġrewarded":13420,"Ġpatriotic":13421,"Ġinaccurate":13422,"Ġplodding":13423,"Ġintricate":13424,"Ġpompous":13425,"Ġmisfortune":13426,"ĠOlymp":13427,"During":13428,"IP":13429,"Jeff":13430,"fty":13431,"gence":13432,"hou":13433,"moon":13434,"pop":13435,"Ġmasc":13436,"Ġben":13437,"Ġbiol":13438,"Ġpanic":13439,"Ġdil":13440,"sty":13441,"Ġitems":13442,"ĠAV":13443,"Ġanc":13444,"ĠBrett":13445,"ĠDirected":13446,"elcome":13447,"ĠFE":13448,"ĠGree":13449,"atell":13450,"plus":13451,"Ġperverse":13452,"ĠKl":13453,"Ġbaddies":13454,"Ġoverlong":13455,"inth":13456,"wegian":13457,"cipe":13458,"Ġtraits":13459,"Ġincidents":13460,"Ġcouch":13461,"ĠSheen":13462,"Ġpassage":13463,"ĠStein":13464,"Ġdepra":13465,"ĠChristians":13466,"Ġinflict":13467,"ampoon":13468,"Ġmotel":13469,"Ġwinter":13470,"Ġrespectively":13471,"lights":13472,"Ġcampus":13473,"irties":13474,"Ġ1972":13475,"OUN":13476,"Ġcommunist":13477,"ĠTrain":13478,"ĠTrouble":13479,"ĠApocalypse":13480,"Ġripoff":13481,"ophren":13482,"Ġdefeated":13483,"Ġprotection":13484,"Ġduplic":13485,"Ġboost":13486,"ĠCleef":13487,"Ġlayers":13488,"Ġhysterically":13489,"Ġvideot":13490,"Ġbattling":13491,"ĠTurkey":13492,"Ġgigantic":13493,"historic":13494,"ĠLambert":13495,"Ġdisappearance":13496,"Ġguaranteed":13497,"driven":13498,"Ġsenior":13499,"Ġtossed":13500,"ARNING":13501,"ĠSydney":13502,"ĠSopranos":13503,"Ġunconscious":13504,"Final":13505,"Set":13506,"kh":13507,"liest":13508,"sk":13509,"vous":13510,"Ã¼":13511,"herence":13512,"rected":13513,"Ġfighters":13514,"ester":13515,"Ġpulp":13516,"leck":13517,"Ġbegun":13518,"ĠCS":13519,"Ġfruit":13520,"Ġvi":13521,"ĠRid":13522,"ĠFO":13523,"umar":13524,"ĠGle":13525,"Ġupside":13526,"ĠKatherine":13527,"izophren":13528,"ĠVic":13529,"Ġaftermath":13530,"ipher":13531,"bec":13532,"Ġdecad":13533,"angers":13534,"ritz":13535,"Ġcoat":13536,"Ġelite":13537,"Ġextre":13538,"Ġdefinitive":13539,"ĠSeinfeld":13540,"Ġeventual":13541,"Ġembark":13542,"ĠFranklin":13543,"Ġgirlfriends":13544,"Ġdolls":13545,"ĠActress":13546,"Ġcruise":13547,"Ġinfluential":13548,"Ġfreaky":13549,"Ġpraised":13550,"Ġtendency":13551,"Ġpeaceful":13552,"Ġadvertis":13553,"Ġtapes":13554,"ĠAmazing":13555,"Ġrewarding":13556,"Ġfacility":13557,"Grade":13558,"ĠSylvia":13559,"ĠWrong":13560,"Ġnuns":13561,"build":13562,"Ġpoliticians":13563,"Ġironically":13564,"Ġovershad":13565,"ĠFuture":13566,"Ġrecycled":13567,"Ġlavish":13568,"Ġabstract":13569,"ĠHUGE":13570,"Ġredundant":13571,"Lu":13572,"Niro":13573,"Our":13574,"gate":13575,"tick":13576,"Ġta":13577,"Ġloop":13578,"Ġgre":13579,"Ġselection":13580,"ĠSax":13581,"riors":13582,"ĠBrend":13583,"ĠMolly":13584,"terling":13585,"ĠHand":13586,"ĠWally":13587,"ĠDance":13588,"Ġwholes":13589,"ĠRel":13590,"ĠFi":13591,"fell":13592,"ĠGone":13593,"ĠGwyn":13594,"ĠNigel":13595,"osal":13596,"ĠKind":13597,"ĠKirst":13598,"aby":13599,"Ġflim":13600,"ĠHef":13601,"ocra":13602,"ĠAliens":13603,"ibals":13604,"Ġbuys":13605,"Ġextensive":13606,"Ġinspect":13607,"scenes":13608,"Ġhats":13609,"ĠLeg":13610,"ikes":13611,"Ġnovelist":13612,"ĠConnor":13613,"Ġveget":13614,"ĠAdrien":13615,"Ġsufficient":13616,"OUSE":13617,"Ġ1993":13618,"Ġimprobable":13619,"Ġinsulted":13620,"Ġrolls":13621,"ĠMississippi":13622,"Ġneighbour":13623,"Ġsuitably":13624,"Ġbenefits":13625,"Ġunwilling":13626,"Ġadvertised":13627,"Ġgentleman":13628,"Ġanticipation":13629,"Ġweaknesses":13630,"ĠHAVE":13631,"Ġstylized":13632,"ĠBridges":13633,"Ġimpecc":13634,"ĠTakashi":13635,"ĠMassey":13636,"Ġantagonist":13637,"ĠUntil":13638,"ĠEarp":13639,"ĠTokyo":13640,"Dennis":13641,"Mary":13642,"Phant":13643,"TW":13644,"UCH":13645,"Which":13646,"found":13647,"mouthed":13648,"tal":13649,"uing":13650,"vd":13651,"ouching":13652,"Ġduck":13653,"Ġgris":13654,"ĠIvan":13655,"Ġec":13656,"Ġbegs":13657,"aye":13658,"ĠTheat":13659,"ĠHan":13660,"ĠHorse":13661,"ĠDaw":13662,"ĠDern":13663,"anton":13664,"Ġchainsaw":13665,"usch":13666,"ĠRu":13667,"Ġoutright":13668,"ĠJar":13669,"ĠGiant":13670,"Ġmeal":13671,"ĠEbert":13672,"uded":13673,"itte":13674,"Ġpercept":13675,"abh":13676,"arettes":13677,"gins":13678,"Ġspray":13679,"meaning":13680,"ĠUP":13681,"Ġdownfall":13682,"Ġcomparable":13683,"Ġsmiles":13684,"ignific":13685,"arriet":13686,"Ġconfuse":13687,"Ġski":13688,"comed":13689,"ĠSeems":13690,"Ġswashbuck":13691,"Ġcharms":13692,"Ġfeminist":13693,"ĠConway":13694,"Ġshootout":13695,"Ġfills":13696,"ĠBrooke":13697,"Ġundead":13698,"Ġapproached":13699,"Ġcolleagues":13700,"LEASE":13701,"ĠAusten":13702,"Ġreceiving":13703,"tta":13704,"Ġrapid":13705,"Ġdaddy":13706,"Ġconfronts":13707,"Ġboobs":13708,"Ġsucker":13709,"Ġpuzzles":13710,"Ġconcentration":13711,"Ġarguments":13712,"ĠPrivate":13713,"Ġresistance":13714,"Ġhippies":13715,"Ġcarnival":13716,"ĠCuba":13717,"Ġprejudice":13718,"ĠAlonzo":13719,"ĠTIME":13720,"ĠMalkovich":13721,"''":13722,":\"":13723,"More":13724,"wright":13725,"Ġtub":13726,"Ġfoil":13727,"Ġbike":13728,"iture":13729,"itarian":13730,"Ġcurt":13731,"orous":13732,"Ġpressed":13733,"Ġbelt":13734,"holes":13735,"Ġrecipe":13736,"adder":13737,"Ġseats":13738,"Ġhunk":13739,"amour":13740,"Ġthrust":13741,"ĠBody":13742,"Ġ(*":13743,"ĠHou":13744,"ĠWha":13745,"Ġsuave":13746,"outing":13747,"Ġchaotic":13748,"Ġvoid":13749,"Ġvapid":13750,"ested":13751,"ĠRhys":13752,"Ġoutlaw":13753,"ĠNam":13754,"Ġunans":13755,"Ġmanic":13756,"Ġshrew":13757,"Ġclan":13758,"Ġarcha":13759,"Ġoverd":13760,"forming":13761,"inton":13762,"asses":13763,"Ġsmash":13764,"Ġresent":13765,"Ġgrin":13766,".\")":13767,"ĠAna":13768,"ĠScenes":13769,"ĠClouse":13770,"Ġentirety":13771,"Ġassure":13772,"ugitive":13773,"Ġadvances":13774,"anca":13775,"Ġparodies":13776,"ĠEnglund":13777,"office":13778,"ĠBritt":13779,"Ġcheaply":13780,"ART":13781,"ĠDanish":13782,"Ġstripper":13783,"REE":13784,"Ġmentor":13785,"Ġballet":13786,"ĠDunn":13787,"ĠIrving":13788,"Ġmutual":13789,"Ġskinny":13790,"................":13791,"Ġfools":13792,"burg":13793,"Ġvolcano":13794,"market":13795,"Really":13796,"Ġcookie":13797,"ĠPacific":13798,"izza":13799,"Ġframes":13800,"ĠHELL":13801,"Ġdeliberate":13802,"Ġcontroversy":13803,"Ġbiker":13804,"ĠFuller":13805,"Ġpirates":13806,"Ġfortunately":13807,"Ġcarnage":13808,"ĠSupporting":13809,"Ġsuccumb":13810,"ĠFulci":13811,"Bet":13812,"cre":13813,"dun":13814,"gled":13815,"lucky":13816,"ni":13817,"oin":13818,"Ã¶":13819,"Ġaer":13820,"Ġculp":13821,"ouement":13822,"Ġinsect":13823,"athered":13824,"Ġgolf":13825,"Ġglee":13826,"Ġnast":13827,"Ġnaught":13828,"utive":13829,"iler":13830,"Ġbegging":13831,"ĠSense":13832,"ĠBee":13833,"ĠMess":13834,"illon":13835,"ĠCBS":13836,"ĠHours":13837,"ulent":13838,"Ġscored":13839,"Ġchau":13840,"ĠPap":13841,"ĠFry":13842,"ĠJos":13843,"ĠNC":13844,"Ġunatt":13845,"abel":13846,"apable":13847,"Ġspont":13848,"Ġunderworld":13849,"ĠUr":13850,"Ġsurgeon":13851,"actually":13852,"ocious":13853,"Ġfactors":13854,"Ġmuscle":13855,"Ġcohes":13856,"Ġfarmer":13857,"Ġmeanwhile":13858,"Ġchoosing":13859,"Ġindicate":13860,"Ġlightning":13861,"tersweet":13862,"Ġadmired":13863,"OTH":13864,"Ġeffortlessly":13865,"Ġsolved":13866,"Ġillusion":13867,"Ġrespects":13868,"Ġlandscapes":13869,"Ġeyebrow":13870,"Ġ1988":13871,"ĠMartha":13872,"without":13873,"rooms":13874,"ĠTracy":13875,"ĠGoes":13876,"Ġinsights":13877,"ĠVictoria":13878,"Ġorganized":13879,"ĠSunshine":13880,"ĠVeronica":13881,"ĠKathy":13882,"Thank":13883,"Ġassembled":13884,"Ġmythology":13885,"Ġfeeble":13886,"Ġtherapy":13887,"Ġsynthes":13888,"ĠâĢĵ":13889,"ĠRathbone":13890,"incerity":13891,"Ġunanswered":13892,"Ben":13893,"Fe":13894,"Mad":13895,"Nat":13896,"brol":13897,"dro":13898,"ege":13899,"husband":13900,"tale":13901,"Ġsomeday":13902,"Ġbounty":13903,"Ġpals":13904,"Ġlol":13905,"ieving":13906,"Ġrevers":13907,"sea":13908,"adventure":13909,"ĠBett":13910,"ĠCurse":13911,"ĠDom":13912,"ĠDig":13913,"Ġactivity":13914,"Ġexempl":13915,"Ġalert":13916,"ĠPie":13917,"ĠRita":13918,"asted":13919,"ĠGard":13920,"Ġunner":13921,"ichi":13922,"ĠOk":13923,"Ġpopping":13924,"Ġhollow":13925,"ĠVoy":13926,"ĠVII":13927,"ĠStalin":13928,"Ġrips":13929,"angs":13930,"Ġyoungest":13931,"Ġbiting":13932,"Ġresident":13933,"Ġtrials":13934,"Ġgrass":13935,"Ġcope":13936,"Ġinterior":13937,"ollowing":13938,"Ġstarters":13939,"Ġcracks":13940,"Ġcracking":13941,"Ġseriousness":13942,"Ġstudies":13943,"Ġdeadpan":13944,"Ġexamination":13945,"ussie":13946,"Ġdemonic":13947,"Ġpsyched":13948,"ĠWithin":13949,"Ġcolours":13950,"Ġmomentum":13951,"Ġhusbands":13952,"Ġdisconne":13953,"archy":13954,"Ġuncertain":13955,"ĠAmanda":13956,"Ġ1976":13957,"Ġredneck":13958,"Ġavoiding":13959,"Ġ1932":13960,"ĠMadame":13961,"Ġachieves":13962,"ĠActors":13963,"raser":13964,"ĠGloria":13965,"Ġhunted":13966,"bbie":13967,"Ġmouths":13968,"Ġdegener":13969,"iacs":13970,"Ġverbal":13971,"girls":13972,"Ġcontestants":13973,"ĠDepression":13974,"Ġpromptly":13975,"Actually":13976,"Ġvomit":13977,"Ġsession":13978,"ĠBishop":13979,"Ġreliable":13980,"Ġdownt":13981,"Ġglimpses":13982,"nthia":13983,"Ġpivotal":13984,"KO":13985,"OCK":13986,"cogn":13987,"first":13988,"family":13989,"nick":13990,"rna":13991,"witted":13992,"Ġmates":13993,"itabh":13994,"Ġcemetery":13995,"Ġinadvert":13996,"alike":13997,"raged":13998,"ĠAld":13999,"ĠAsoka":14000,"ĠSaint":14001,"Ġhttp":14002,"ria":14003,"ĠMack":14004,"ĠHem":14005,"ĠHob":14006,"ĠHurt":14007,"ĠDest":14008,"ĠDustin":14009,"Ġjam":14010,"elf":14011,"Ġabound":14012,"Ġchant":14013,"ĠLucky":14014,"astrop":14015,"Ġlikewise":14016,"ĠJody":14017,"auc":14018,"ĠNove":14019,"Ġunleas":14020,"inky":14021,"Ġarche":14022,"Ġrose":14023,"erty":14024,"Ġspan":14025,"Ġflame":14026,"Ġwherever":14027,"ĠUma":14028,"spoken":14029,"xtap":14030,"prising":14031,"osedly":14032,"itionally":14033,"Ġchops":14034,"Ġimaginary":14035,"ountered":14036,"Ġsingers":14037,"Ġlocated":14038,"ĠArk":14039,"Ġpaints":14040,"Ġbloods":14041,"Ġzone":14042,"ĠShawn":14043,"Ġcritique":14044,"Ġconsideration":14045,"ĠGodd":14046,"Ġsimilarity":14047,"Ġavoids":14048,"Ġencountered":14049,"Ġapprox":14050,"ĠWhoever":14051,"Ġcovering":14052,"Ġsatisfaction":14053,"Ġminority":14054,"Ġsuspected":14055,"altrow":14056,"guez":14057,"Ġstunningly":14058,"Ġemployee":14059,"ĠHayward":14060,"ĠLester":14061,"ĠJanet":14062,"Ġjuxtap":14063,"ĠZombies":14064,"Steve":14065,"Ġbillion":14066,"Ġmercen":14067,"ĠSquare":14068,"ĠProduction":14069,"Ġuneasy":14070,"Kevin":14071,"ĠRomeo":14072,"Ġtormented":14073,"Ġtomorrow":14074,"Ġfierce":14075,"aithful":14076,"ĠOpera":14077,"ĠGilbert":14078,"Ġpursue":14079,"Ġanguish":14080,"ĠDeMille":14081,"Ġgrisly":14082,"Bill":14083,"Cap":14084,"NY":14085,"Old":14086,"Son":14087,"bling":14088,"care":14089,"flu":14090,"hit":14091,"mony":14092,"pat":14093,"Ġsly":14094,"Ġsorrow":14095,"Ġsincerity":14096,"Ġfox":14097,"Ġpran":14098,"Ġdawn":14099,"imated":14100,"ĠACT":14101,"ĠShy":14102,"ĠSandy":14103,"ĠMut":14104,"ifi":14105,"emen":14106,"agu":14107,"ĠLund":14108,
[...]
